{
  "version": "1.0",
  "truncation": null,
  "padding": null,
  "added_tokens": [
    {
      "id": 0,
      "content": "<pad>",
      "single_word": false,
      "lstrip": false,
      "rstrip": false,
      "normalized": false,
      "special": true
    },
    {
      "id": 1,
      "content": "<bos>",
      "single_word": false,
      "lstrip": false,
      "rstrip": false,
      "normalized": false,
      "special": true
    },
    {
      "id": 2,
      "content": "<eos>",
      "single_word": false,
      "lstrip": false,
      "rstrip": false,
      "normalized": false,
      "special": true
    },
    {
      "id": 3,
      "content": "<unk>",
      "single_word": false,
      "lstrip": false,
      "rstrip": false,
      "normalized": false,
      "special": true
    },
    {
      "id": 4,
      "content": "<mask>",
      "single_word": false,
      "lstrip": false,
      "rstrip": false,
      "normalized": false,
      "special": true
    }
  ],
  "normalizer": {
    "type": "NFC"
  },
  "pre_tokenizer": {
    "type": "Whitespace"
  },
  "post_processor": null,
  "decoder": null,
  "model": {
    "type": "BPE",
    "dropout": null,
    "unk_token": "<unk>",
    "continuing_subword_prefix": null,
    "end_of_word_suffix": null,
    "fuse_unk": false,
    "byte_fallback": false,
    "ignore_merges": false,
    "vocab": {
      "<pad>": 0,
      "<bos>": 1,
      "<eos>": 2,
      "<unk>": 3,
      "<mask>": 4,
      "\u0001": 5,
      "\u0002": 6,
      "\u0003": 7,
      "\u0004": 8,
      "\u0005": 9,
      "\b": 10,
      "\u000e": 11,
      "\u0010": 12,
      "\u0012": 13,
      "\u0018": 14,
      "\u001a": 15,
      "\u001b": 16,
      "\u001f": 17,
      "!": 18,
      "\"": 19,
      "#": 20,
      "$": 21,
      "%": 22,
      "&": 23,
      "'": 24,
      "(": 25,
      ")": 26,
      "*": 27,
      "+": 28,
      ",": 29,
      "-": 30,
      ".": 31,
      "/": 32,
      "0": 33,
      "1": 34,
      "2": 35,
      "3": 36,
      "4": 37,
      "5": 38,
      "6": 39,
      "7": 40,
      "8": 41,
      "9": 42,
      ":": 43,
      ";": 44,
      "<": 45,
      "=": 46,
      ">": 47,
      "?": 48,
      "@": 49,
      "A": 50,
      "B": 51,
      "C": 52,
      "D": 53,
      "E": 54,
      "F": 55,
      "G": 56,
      "H": 57,
      "I": 58,
      "J": 59,
      "K": 60,
      "L": 61,
      "M": 62,
      "N": 63,
      "O": 64,
      "P": 65,
      "Q": 66,
      "R": 67,
      "S": 68,
      "T": 69,
      "U": 70,
      "V": 71,
      "W": 72,
      "X": 73,
      "Y": 74,
      "Z": 75,
      "[": 76,
      "\\": 77,
      "]": 78,
      "^": 79,
      "_": 80,
      "`": 81,
      "a": 82,
      "b": 83,
      "c": 84,
      "d": 85,
      "e": 86,
      "f": 87,
      "g": 88,
      "h": 89,
      "i": 90,
      "j": 91,
      "k": 92,
      "l": 93,
      "m": 94,
      "n": 95,
      "o": 96,
      "p": 97,
      "q": 98,
      "r": 99,
      "s": 100,
      "t": 101,
      "u": 102,
      "v": 103,
      "w": 104,
      "x": 105,
      "y": 106,
      "z": 107,
      "{": 108,
      "|": 109,
      "}": 110,
      "~": 111,
      "": 112,
      "": 113,
      "": 114,
      "": 115,
      "": 116,
      "": 117,
      "": 118,
      "": 119,
      "": 120,
      "": 121,
      "": 122,
      "": 123,
      "¡": 124,
      "¢": 125,
      "£": 126,
      "¤": 127,
      "¥": 128,
      "¦": 129,
      "§": 130,
      "¨": 131,
      "©": 132,
      "ª": 133,
      "«": 134,
      "¬": 135,
      "­": 136,
      "®": 137,
      "¯": 138,
      "°": 139,
      "±": 140,
      "²": 141,
      "³": 142,
      "´": 143,
      "µ": 144,
      "¶": 145,
      "·": 146,
      "¸": 147,
      "¹": 148,
      "º": 149,
      "»": 150,
      "¼": 151,
      "½": 152,
      "¾": 153,
      "¿": 154,
      "À": 155,
      "Á": 156,
      "Â": 157,
      "Ã": 158,
      "Ä": 159,
      "Å": 160,
      "Æ": 161,
      "Ç": 162,
      "È": 163,
      "É": 164,
      "Ê": 165,
      "Ë": 166,
      "Ì": 167,
      "Í": 168,
      "Î": 169,
      "Ï": 170,
      "Ð": 171,
      "Ñ": 172,
      "Ò": 173,
      "Ó": 174,
      "Ô": 175,
      "Õ": 176,
      "Ö": 177,
      "×": 178,
      "Ø": 179,
      "Ù": 180,
      "Ú": 181,
      "Û": 182,
      "Ü": 183,
      "Ý": 184,
      "Þ": 185,
      "ß": 186,
      "à": 187,
      "á": 188,
      "â": 189,
      "ã": 190,
      "ä": 191,
      "å": 192,
      "æ": 193,
      "ç": 194,
      "è": 195,
      "é": 196,
      "ê": 197,
      "ë": 198,
      "ì": 199,
      "í": 200,
      "î": 201,
      "ï": 202,
      "ð": 203,
      "ñ": 204,
      "ò": 205,
      "ó": 206,
      "ô": 207,
      "õ": 208,
      "ö": 209,
      "÷": 210,
      "ø": 211,
      "ù": 212,
      "ú": 213,
      "û": 214,
      "ü": 215,
      "ý": 216,
      "þ": 217,
      "ÿ": 218,
      "Ā": 219,
      "ā": 220,
      "ă": 221,
      "ą": 222,
      "Ć": 223,
      "ć": 224,
      "ĉ": 225,
      "Č": 226,
      "č": 227,
      "Đ": 228,
      "đ": 229,
      "ē": 230,
      "ė": 231,
      "Ę": 232,
      "ę": 233,
      "ě": 234,
      "Ğ": 235,
      "ğ": 236,
      "ġ": 237,
      "ħ": 238,
      "ĩ": 239,
      "Ī": 240,
      "ī": 241,
      "į": 242,
      "İ": 243,
      "ı": 244,
      "ĵ": 245,
      "ķ": 246,
      "Ļ": 247,
      "Ľ": 248,
      "ľ": 249,
      "Ŀ": 250,
      "ŀ": 251,
      "Ł": 252,
      "ł": 253,
      "Ń": 254,
      "ń": 255,
      "Ņ": 256,
      "ņ": 257,
      "Ň": 258,
      "ň": 259,
      "ŋ": 260,
      "Ō": 261,
      "ō": 262,
      "ő": 263,
      "Œ": 264,
      "œ": 265,
      "ŗ": 266,
      "Ř": 267,
      "ř": 268,
      "Ś": 269,
      "ś": 270,
      "ŝ": 271,
      "Ş": 272,
      "ş": 273,
      "Š": 274,
      "š": 275,
      "ţ": 276,
      "ť": 277,
      "Ŧ": 278,
      "ũ": 279,
      "ū": 280,
      "ŭ": 281,
      "ů": 282,
      "Ÿ": 283,
      "Ż": 284,
      "ż": 285,
      "Ž": 286,
      "ž": 287,
      "ƃ": 288,
      "Ƒ": 289,
      "ƒ": 290,
      "ơ": 291,
      "ƨ": 292,
      "ư": 293,
      "Ʒ": 294,
      "ǀ": 295,
      "ǁ": 296,
      "ǃ": 297,
      "ǎ": 298,
      "ǐ": 299,
      "ǒ": 300,
      "ǔ": 301,
      "ǚ": 302,
      "ǝ": 303,
      "ǯ": 304,
      "ș": 305,
      "ț": 306,
      "ȯ": 307,
      "ɐ": 308,
      "ɑ": 309,
      "ɒ": 310,
      "ɔ": 311,
      "ɕ": 312,
      "ɖ": 313,
      "ɗ": 314,
      "ɘ": 315,
      "ə": 316,
      "ɛ": 317,
      "ɜ": 318,
      "ɝ": 319,
      "ɟ": 320,
      "ɡ": 321,
      "ɣ": 322,
      "ɥ": 323,
      "ɦ": 324,
      "ɨ": 325,
      "ɪ": 326,
      "ɲ": 327,
      "ɳ": 328,
      "ɵ": 329,
      "ɹ": 330,
      "ɼ": 331,
      "ɾ": 332,
      "ʀ": 333,
      "ʁ": 334,
      "ʂ": 335,
      "ʃ": 336,
      "ʅ": 337,
      "ʆ": 338,
      "ʇ": 339,
      "ʈ": 340,
      "ʊ": 341,
      "ʋ": 342,
      "ʌ": 343,
      "ʎ": 344,
      "ʏ": 345,
      "ʑ": 346,
      "ʒ": 347,
      "ʔ": 348,
      "ʞ": 349,
      "ʰ": 350,
      "ʱ": 351,
      "ʲ": 352,
      "ʷ": 353,
      "ʻ": 354,
      "ʼ": 355,
      "ʽ": 356,
      "ʾ": 357,
      "ʿ": 358,
      "ˀ": 359,
      "ˆ": 360,
      "ˈ": 361,
      "ˌ": 362,
      "ː": 363,
      "ˑ": 364,
      "˘": 365,
      "˚": 366,
      "˜": 367,
      "ˮ": 368,
      "˴": 369,
      "̀": 370,
      "́": 371,
      "̃": 372,
      "̄": 373,
      "̆": 374,
      "̈": 375,
      "̊": 376,
      "̓": 377,
      "̔": 378,
      "̕": 379,
      "̤": 380,
      "̥": 381,
      "̧": 382,
      "̪": 383,
      "̯": 384,
      "̲": 385,
      "̵": 386,
      "̶": 387,
      "͂": 388,
      "͜": 389,
      "͡": 390,
      "ͦ": 391,
      "Ͳ": 392,
      "ͳ": 393,
      "ͻ": 394,
      "Ά": 395,
      "Ί": 396,
      "Α": 397,
      "Β": 398,
      "Γ": 399,
      "Δ": 400,
      "Ε": 401,
      "Η": 402,
      "Θ": 403,
      "Ι": 404,
      "Κ": 405,
      "Λ": 406,
      "Μ": 407,
      "Ν": 408,
      "Ο": 409,
      "Π": 410,
      "Ρ": 411,
      "Σ": 412,
      "Τ": 413,
      "Υ": 414,
      "Φ": 415,
      "Χ": 416,
      "Ψ": 417,
      "Ω": 418,
      "ά": 419,
      "έ": 420,
      "ή": 421,
      "ί": 422,
      "ΰ": 423,
      "α": 424,
      "β": 425,
      "γ": 426,
      "δ": 427,
      "ε": 428,
      "ζ": 429,
      "η": 430,
      "θ": 431,
      "ι": 432,
      "κ": 433,
      "λ": 434,
      "μ": 435,
      "ν": 436,
      "ξ": 437,
      "ο": 438,
      "π": 439,
      "ρ": 440,
      "ς": 441,
      "σ": 442,
      "τ": 443,
      "υ": 444,
      "φ": 445,
      "χ": 446,
      "ψ": 447,
      "ω": 448,
      "ϊ": 449,
      "ό": 450,
      "ύ": 451,
      "ώ": 452,
      "ϐ": 453,
      "ϑ": 454,
      "ϒ": 455,
      "ϕ": 456,
      "ϖ": 457,
      "Ϙ": 458,
      "ϙ": 459,
      "ϛ": 460,
      "Ϝ": 461,
      "Ϡ": 462,
      "ϡ": 463,
      "ϰ": 464,
      "ϱ": 465,
      "ϲ": 466,
      "ϵ": 467,
      "Ϻ": 468,
      "Ё": 469,
      "І": 470,
      "Ј": 471,
      "Ў": 472,
      "А": 473,
      "Б": 474,
      "В": 475,
      "Г": 476,
      "Д": 477,
      "Е": 478,
      "Ж": 479,
      "З": 480,
      "И": 481,
      "Й": 482,
      "К": 483,
      "Л": 484,
      "М": 485,
      "Н": 486,
      "О": 487,
      "П": 488,
      "Р": 489,
      "С": 490,
      "Т": 491,
      "У": 492,
      "Ф": 493,
      "Х": 494,
      "Ц": 495,
      "Ч": 496,
      "Ш": 497,
      "Щ": 498,
      "Ы": 499,
      "Ь": 500,
      "Э": 501,
      "Я": 502,
      "а": 503,
      "б": 504,
      "в": 505,
      "г": 506,
      "д": 507,
      "е": 508,
      "ж": 509,
      "з": 510,
      "и": 511,
      "й": 512,
      "к": 513,
      "л": 514,
      "м": 515,
      "н": 516,
      "о": 517,
      "п": 518,
      "р": 519,
      "с": 520,
      "т": 521,
      "у": 522,
      "ф": 523,
      "х": 524,
      "ц": 525,
      "ч": 526,
      "ш": 527,
      "щ": 528,
      "ъ": 529,
      "ы": 530,
      "ь": 531,
      "э": 532,
      "ю": 533,
      "я": 534,
      "ё": 535,
      "ђ": 536,
      "є": 537,
      "ѕ": 538,
      "і": 539,
      "ї": 540,
      "ј": 541,
      "њ": 542,
      "ћ": 543,
      "ќ": 544,
      "ѳ": 545,
      "Қ": 546,
      "қ": 547,
      "ҡ": 548,
      "ҩ": 549,
      "ү": 550,
      "ҵ": 551,
      "ҷ": 552,
      "һ": 553,
      "ӣ": 554,
      "ө": 555,
      "Հ": 556,
      "՚": 557,
      "ա": 558,
      "ե": 559,
      "ը": 560,
      "ի": 561,
      "հ": 562,
      "յ": 563,
      "ն": 564,
      "ո": 565,
      "ս": 566,
      "տ": 567,
      "ր": 568,
      "ց": 569,
      "ւ": 570,
      "օ": 571,
      "֒": 572,
      "ְ": 573,
      "ֲ": 574,
      "ִ": 575,
      "ֵ": 576,
      "ֶ": 577,
      "ַ": 578,
      "ָ": 579,
      "ֹ": 580,
      "ֻ": 581,
      "ּ": 582,
      "ֽ": 583,
      "־": 584,
      "ׁ": 585,
      "׃": 586,
      "א": 587,
      "ב": 588,
      "ג": 589,
      "ד": 590,
      "ה": 591,
      "ו": 592,
      "ז": 593,
      "ח": 594,
      "ט": 595,
      "י": 596,
      "ך": 597,
      "כ": 598,
      "ל": 599,
      "ם": 600,
      "מ": 601,
      "ן": 602,
      "נ": 603,
      "ס": 604,
      "ע": 605,
      "פ": 606,
      "צ": 607,
      "ק": 608,
      "ר": 609,
      "ש": 610,
      "ת": 611,
      "׳": 612,
      "״": 613,
      "،": 614,
      "ء": 615,
      "آ": 616,
      "أ": 617,
      "ؤ": 618,
      "إ": 619,
      "ئ": 620,
      "ا": 621,
      "ب": 622,
      "ة": 623,
      "ت": 624,
      "ث": 625,
      "ج": 626,
      "ح": 627,
      "خ": 628,
      "د": 629,
      "ذ": 630,
      "ر": 631,
      "ز": 632,
      "س": 633,
      "ش": 634,
      "ص": 635,
      "ض": 636,
      "ط": 637,
      "ظ": 638,
      "ع": 639,
      "غ": 640,
      "ـ": 641,
      "ف": 642,
      "ق": 643,
      "ك": 644,
      "ل": 645,
      "م": 646,
      "ن": 647,
      "ه": 648,
      "و": 649,
      "ى": 650,
      "ي": 651,
      "ً": 652,
      "ٌ": 653,
      "ٍ": 654,
      "َ": 655,
      "ُ": 656,
      "ِ": 657,
      "ّ": 658,
      "ْ": 659,
      "ٔ": 660,
      "ٕ": 661,
      "٪": 662,
      "ٰ": 663,
      "ٹ": 664,
      "پ": 665,
      "چ": 666,
      "ڈ": 667,
      "ک": 668,
      "ڪ": 669,
      "گ": 670,
      "ں": 671,
      "ھ": 672,
      "ہ": 673,
      "ۃ": 674,
      "ۄ": 675,
      "ی": 676,
      "ێ": 677,
      "ے": 678,
      "۔": 679,
      "ܒ": 680,
      "ܘ": 681,
      "ܝ": 682,
      "ܠ": 683,
      "ܣ": 684,
      "ܩ": 685,
      "ܪ": 686,
      "ހ": 687,
      "ރ": 688,
      "އ": 689,
      "ވ": 690,
      "ދ": 691,
      "ޏ": 692,
      "ޖ": 693,
      "ޝ": 694,
      "ާ": 695,
      "ި": 696,
      "ެ": 697,
      "ް": 698,
      "ޱ": 699,
      "ँ": 700,
      "ं": 701,
      "ः": 702,
      "अ": 703,
      "आ": 704,
      "इ": 705,
      "ई": 706,
      "उ": 707,
      "ऊ": 708,
      "ऋ": 709,
      "ऍ": 710,
      "ऎ": 711,
      "ए": 712,
      "ऐ": 713,
      "ओ": 714,
      "औ": 715,
      "क": 716,
      "ख": 717,
      "ग": 718,
      "घ": 719,
      "ङ": 720,
      "च": 721,
      "छ": 722,
      "ज": 723,
      "झ": 724,
      "ञ": 725,
      "ट": 726,
      "ठ": 727,
      "ड": 728,
      "ढ": 729,
      "ण": 730,
      "त": 731,
      "थ": 732,
      "द": 733,
      "ध": 734,
      "न": 735,
      "प": 736,
      "फ": 737,
      "ब": 738,
      "भ": 739,
      "म": 740,
      "य": 741,
      "र": 742,
      "ल": 743,
      "ळ": 744,
      "व": 745,
      "श": 746,
      "ष": 747,
      "स": 748,
      "ह": 749,
      "़": 750,
      "ऽ": 751,
      "ा": 752,
      "ि": 753,
      "ी": 754,
      "ु": 755,
      "ू": 756,
      "ृ": 757,
      "ॅ": 758,
      "ॆ": 759,
      "े": 760,
      "ै": 761,
      "ॉ": 762,
      "ॊ": 763,
      "ो": 764,
      "ौ": 765,
      "्": 766,
      "ॐ": 767,
      "॑": 768,
      "॒": 769,
      "॓": 770,
      "।": 771,
      "॥": 772,
      "०": 773,
      "१": 774,
      "२": 775,
      "४": 776,
      "५": 777,
      "६": 778,
      "७": 779,
      "९": 780,
      "॰": 781,
      "ঁ": 782,
      "ং": 783,
      "ঃ": 784,
      "অ": 785,
      "আ": 786,
      "ই": 787,
      "উ": 788,
      "এ": 789,
      "ও": 790,
      "ক": 791,
      "খ": 792,
      "গ": 793,
      "ঘ": 794,
      "ঙ": 795,
      "চ": 796,
      "ছ": 797,
      "জ": 798,
      "ঞ": 799,
      "ট": 800,
      "ঠ": 801,
      "ড": 802,
      "ঢ": 803,
      "ণ": 804,
      "ত": 805,
      "থ": 806,
      "দ": 807,
      "ধ": 808,
      "ন": 809,
      "প": 810,
      "ব": 811,
      "ভ": 812,
      "ম": 813,
      "য": 814,
      "র": 815,
      "ল": 816,
      "শ": 817,
      "ষ": 818,
      "স": 819,
      "হ": 820,
      "়": 821,
      "া": 822,
      "ি": 823,
      "ী": 824,
      "ু": 825,
      "ৃ": 826,
      "ে": 827,
      "ৈ": 828,
      "ো": 829,
      "ৌ": 830,
      "্": 831,
      "ৰ": 832,
      "ৱ": 833,
      "৷": 834,
      "ਂ": 835,
      "ਆ": 836,
      "਍": 837,
      "ਏ": 838,
      "ਓ": 839,
      "ਕ": 840,
      "ਗ": 841,
      "ਘ": 842,
      "ਚ": 843,
      "ਜ": 844,
      "ਟ": 845,
      "ਠ": 846,
      "ਡ": 847,
      "ਣ": 848,
      "ਤ": 849,
      "ਦ": 850,
      "ਧ": 851,
      "ਨ": 852,
      "ਪ": 853,
      "ਫ": 854,
      "ਬ": 855,
      "ਭ": 856,
      "ਮ": 857,
      "ਰ": 858,
      "ਲ": 859,
      "ਵ": 860,
      "ਸ": 861,
      "ਹ": 862,
      "਼": 863,
      "ਾ": 864,
      "ਿ": 865,
      "ੀ": 866,
      "ੁ": 867,
      "ੂ": 868,
      "ੇ": 869,
      "ੈ": 870,
      "ੋ": 871,
      "੍": 872,
      "ੜ": 873,
      "ੰ": 874,
      "ੱ": 875,
      "ઁ": 876,
      "ં": 877,
      "અ": 878,
      "આ": 879,
      "ઉ": 880,
      "ઓ": 881,
      "ક": 882,
      "ગ": 883,
      "ચ": 884,
      "જ": 885,
      "ટ": 886,
      "ડ": 887,
      "ણ": 888,
      "ત": 889,
      "દ": 890,
      "ધ": 891,
      "ન": 892,
      "પ": 893,
      "બ": 894,
      "ભ": 895,
      "મ": 896,
      "ય": 897,
      "ર": 898,
      "લ": 899,
      "વ": 900,
      "શ": 901,
      "સ": 902,
      "હ": 903,
      "ા": 904,
      "િ": 905,
      "ી": 906,
      "ુ": 907,
      "ૂ": 908,
      "ે": 909,
      "ો": 910,
      "ૌ": 911,
      "્": 912,
      "ૐ": 913,
      "૩": 914,
      "ଆ": 915,
      "ଇ": 916,
      "ଓ": 917,
      "କ": 918,
      "ଗ": 919,
      "ଙ": 920,
      "ଜ": 921,
      "ଟ": 922,
      "ଡ": 923,
      "ଢ": 924,
      "ତ": 925,
      "ଥ": 926,
      "ଦ": 927,
      "ନ": 928,
      "ପ": 929,
      "ବ": 930,
      "ମ": 931,
      "ଯ": 932,
      "ର": 933,
      "ଶ": 934,
      "ସ": 935,
      "ହ": 936,
      "଼": 937,
      "ା": 938,
      "ି": 939,
      "ୀ": 940,
      "ୁ": 941,
      "େ": 942,
      "ୋ": 943,
      "୍": 944,
      "ୟ": 945,
      "୭": 946,
      "அ": 947,
      "ஆ": 948,
      "இ": 949,
      "ஈ": 950,
      "உ": 951,
      "எ": 952,
      "ஏ": 953,
      "ஐ": 954,
      "ஒ": 955,
      "க": 956,
      "ங": 957,
      "ச": 958,
      "ஜ": 959,
      "ஞ": 960,
      "ட": 961,
      "ண": 962,
      "த": 963,
      "ந": 964,
      "ன": 965,
      "ப": 966,
      "ம": 967,
      "ய": 968,
      "ர": 969,
      "ற": 970,
      "ல": 971,
      "ள": 972,
      "ழ": 973,
      "வ": 974,
      "ஷ": 975,
      "ஸ": 976,
      "ஹ": 977,
      "ா": 978,
      "ி": 979,
      "ீ": 980,
      "ு": 981,
      "ூ": 982,
      "ெ": 983,
      "ே": 984,
      "ை": 985,
      "ொ": 986,
      "ோ": 987,
      "ௌ": 988,
      "்": 989,
      "ం": 990,
      "ః": 991,
      "అ": 992,
      "ఆ": 993,
      "ఇ": 994,
      "ఉ": 995,
      "ఎ": 996,
      "ఒ": 997,
      "క": 998,
      "ఖ": 999,
      "గ": 1000,
      "ఘ": 1001,
      "చ": 1002,
      "జ": 1003,
      "ఞ": 1004,
      "ట": 1005,
      "ఠ": 1006,
      "డ": 1007,
      "ణ": 1008,
      "త": 1009,
      "థ": 1010,
      "ద": 1011,
      "ధ": 1012,
      "న": 1013,
      "ప": 1014,
      "ఫ": 1015,
      "బ": 1016,
      "భ": 1017,
      "మ": 1018,
      "య": 1019,
      "ర": 1020,
      "ల": 1021,
      "ళ": 1022,
      "వ": 1023,
      "శ": 1024,
      "ష": 1025,
      "స": 1026,
      "హ": 1027,
      "ా": 1028,
      "ి": 1029,
      "ీ": 1030,
      "ు": 1031,
      "ూ": 1032,
      "ృ": 1033,
      "ె": 1034,
      "ే": 1035,
      "ై": 1036,
      "ొ": 1037,
      "ో": 1038,
      "ౌ": 1039,
      "్": 1040,
      "౦": 1041,
      "౨": 1042,
      "౩": 1043,
      "౪": 1044,
      "౯": 1045,
      "ಀ": 1046,
      "ಂ": 1047,
      "ಃ": 1048,
      "ಅ": 1049,
      "ಆ": 1050,
      "ಇ": 1051,
      "ಈ": 1052,
      "ಉ": 1053,
      "ಊ": 1054,
      "ಋ": 1055,
      "ಌ": 1056,
      "ಎ": 1057,
      "ಏ": 1058,
      "ಐ": 1059,
      "ಒ": 1060,
      "ಓ": 1061,
      "ಔ": 1062,
      "ಕ": 1063,
      "ಖ": 1064,
      "ಗ": 1065,
      "ಘ": 1066,
      "ಙ": 1067,
      "ಚ": 1068,
      "ಛ": 1069,
      "ಜ": 1070,
      "ಝ": 1071,
      "ಞ": 1072,
      "ಟ": 1073,
      "ಠ": 1074,
      "ಡ": 1075,
      "ಢ": 1076,
      "ಣ": 1077,
      "ತ": 1078,
      "ಥ": 1079,
      "ದ": 1080,
      "ಧ": 1081,
      "ನ": 1082,
      "ಪ": 1083,
      "ಫ": 1084,
      "ಬ": 1085,
      "ಭ": 1086,
      "ಮ": 1087,
      "ಯ": 1088,
      "ರ": 1089,
      "ಱ": 1090,
      "ಲ": 1091,
      "ಳ": 1092,
      "಴": 1093,
      "ವ": 1094,
      "ಶ": 1095,
      "ಷ": 1096,
      "ಸ": 1097,
      "ಹ": 1098,
      "಺": 1099,
      "಻": 1100,
      "಼": 1101,
      "ಽ": 1102,
      "ಾ": 1103,
      "ಿ": 1104,
      "ೀ": 1105,
      "ು": 1106,
      "ೂ": 1107,
      "ೃ": 1108,
      "ೄ": 1109,
      "ೆ": 1110,
      "ೇ": 1111,
      "ೈ": 1112,
      "೉": 1113,
      "ೊ": 1114,
      "ೋ": 1115,
      "ೌ": 1116,
      "್": 1117,
      "೔": 1118,
      "ೕ": 1119,
      "ೖ": 1120,
      "ೞ": 1121,
      "ೠ": 1122,
      "ೡ": 1123,
      "ೢ": 1124,
      "ೣ": 1125,
      "೦": 1126,
      "೧": 1127,
      "೨": 1128,
      "೩": 1129,
      "೪": 1130,
      "೫": 1131,
      "೬": 1132,
      "೭": 1133,
      "೮": 1134,
      "೯": 1135,
      "ೱ": 1136,
      "ೲ": 1137,
      "೵": 1138,
      "ഀ": 1139,
      "ം": 1140,
      "ഇ": 1141,
      "ഉ": 1142,
      "എ": 1143,
      "ഒ": 1144,
      "ക": 1145,
      "ഗ": 1146,
      "ങ": 1147,
      "ച": 1148,
      "ജ": 1149,
      "ഞ": 1150,
      "ട": 1151,
      "ഡ": 1152,
      "ണ": 1153,
      "ത": 1154,
      "ഥ": 1155,
      "ദ": 1156,
      "ധ": 1157,
      "ന": 1158,
      "പ": 1159,
      "ഫ": 1160,
      "ബ": 1161,
      "ഭ": 1162,
      "മ": 1163,
      "യ": 1164,
      "ര": 1165,
      "റ": 1166,
      "ല": 1167,
      "ള": 1168,
      "ഴ": 1169,
      "വ": 1170,
      "ശ": 1171,
      "ഷ": 1172,
      "സ": 1173,
      "ഹ": 1174,
      "ാ": 1175,
      "ി": 1176,
      "ീ": 1177,
      "ു": 1178,
      "ൂ": 1179,
      "ൃ": 1180,
      "െ": 1181,
      "േ": 1182,
      "ൊ": 1183,
      "ോ": 1184,
      "്": 1185,
      "ൗ": 1186,
      "൦": 1187,
      "൧": 1188,
      "൪": 1189,
      "ൻ": 1190,
      "ർ": 1191,
      "ൽ": 1192,
      "ൾ": 1193,
      "ං": 1194,
      "ග": 1195,
      "ඨ": 1196,
      "ඩ": 1197,
      "ණ": 1198,
      "ත": 1199,
      "ද": 1200,
      "ධ": 1201,
      "න": 1202,
      "ප": 1203,
      "බ": 1204,
      "ම": 1205,
      "ය": 1206,
      "ර": 1207,
      "ල": 1208,
      "ව": 1209,
      "ශ": 1210,
      "ෂ": 1211,
      "ස": 1212,
      "හ": 1213,
      "්": 1214,
      "ා": 1215,
      "ි": 1216,
      "ු": 1217,
      "ූ": 1218,
      "ෙ": 1219,
      "ก": 1220,
      "ข": 1221,
      "ค": 1222,
      "ง": 1223,
      "จ": 1224,
      "ช": 1225,
      "ซ": 1226,
      "ญ": 1227,
      "ด": 1228,
      "ต": 1229,
      "ถ": 1230,
      "ท": 1231,
      "ธ": 1232,
      "น": 1233,
      "บ": 1234,
      "ป": 1235,
      "พ": 1236,
      "ภ": 1237,
      "ม": 1238,
      "ย": 1239,
      "ร": 1240,
      "ล": 1241,
      "ว": 1242,
      "ษ": 1243,
      "ส": 1244,
      "ห": 1245,
      "อ": 1246,
      "ฯ": 1247,
      "ะ": 1248,
      "ั": 1249,
      "า": 1250,
      "ำ": 1251,
      "ิ": 1252,
      "ี": 1253,
      "ื": 1254,
      "ุ": 1255,
      "฿": 1256,
      "เ": 1257,
      "แ": 1258,
      "โ": 1259,
      "ใ": 1260,
      "ไ": 1261,
      "็": 1262,
      "่": 1263,
      "้": 1264,
      "๋": 1265,
      "์": 1266,
      "๐": 1267,
      "๑": 1268,
      "๒": 1269,
      "๔": 1270,
      "๕": 1271,
      "๿": 1272,
      "ກ": 1273,
      "ຊ": 1274,
      "ດ": 1275,
      "ຕ": 1276,
      "ຖ": 1277,
      "ທ": 1278,
      "ນ": 1279,
      "ບ": 1280,
      "ປ": 1281,
      "ພ": 1282,
      "ລ": 1283,
      "ວ": 1284,
      "ສ": 1285,
      "ອ": 1286,
      "ະ": 1287,
      "ັ": 1288,
      "າ": 1289,
      "ິ": 1290,
      "ເ": 1291,
      "ໄ": 1292,
      "་": 1293,
      "ཀ": 1294,
      "ཇ": 1295,
      "བ": 1296,
      "ས": 1297,
      "ུ": 1298,
      "ྒ": 1299,
      "ྲ": 1300,
      "ླ": 1301,
      "ခ": 1302,
      "ဂ": 1303,
      "င": 1304,
      "စ": 1305,
      "ဏ": 1306,
      "ထ": 1307,
      "န": 1308,
      "ပ": 1309,
      "ဗ": 1310,
      "မ": 1311,
      "ရ": 1312,
      "လ": 1313,
      "ဟ": 1314,
      "အ": 1315,
      "ာ": 1316,
      "ိ": 1317,
      "ု": 1318,
      "ူ": 1319,
      "္": 1320,
      "်": 1321,
      "ြ": 1322,
      "Ⴤ": 1323,
      "ა": 1324,
      "გ": 1325,
      "დ": 1326,
      "ე": 1327,
      "ვ": 1328,
      "ზ": 1329,
      "თ": 1330,
      "ი": 1331,
      "კ": 1332,
      "ლ": 1333,
      "მ": 1334,
      "ნ": 1335,
      "ო": 1336,
      "რ": 1337,
      "ტ": 1338,
      "უ": 1339,
      "ქ": 1340,
      "ჩ": 1341,
      "ძ": 1342,
      "წ": 1343,
      "ჭ": 1344,
      "ᆲ": 1345,
      "ሕ": 1346,
      "ም": 1347,
      "ር": 1348,
      "ሳ": 1349,
      "ሻ": 1350,
      "ብ": 1351,
      "ዋ": 1352,
      "ዓ": 1353,
      "ይ": 1354,
      "ጊ": 1355,
      "ጎ": 1356,
      "ጽ": 1357,
      "៛": 1358,
      "ᥙ": 1359,
      "ᬩ": 1360,
      "ᬮ": 1361,
      "ᬶ": 1362,
      "ᴉ": 1363,
      "ᴥ": 1364,
      "ᵒ": 1365,
      "ᶤ": 1366,
      "Ḍ": 1367,
      "ḍ": 1368,
      "ḏ": 1369,
      "ḗ": 1370,
      "Ḥ": 1371,
      "ḥ": 1372,
      "Ḩ": 1373,
      "Ḵ": 1374,
      "ḷ": 1375,
      "ḻ": 1376,
      "ṁ": 1377,
      "ṃ": 1378,
      "ṅ": 1379,
      "Ṇ": 1380,
      "ṇ": 1381,
      "ṉ": 1382,
      "ṓ": 1383,
      "Ṛ": 1384,
      "ṛ": 1385,
      "ṝ": 1386,
      "ṟ": 1387,
      "Ṣ": 1388,
      "ṣ": 1389,
      "Ṭ": 1390,
      "ṭ": 1391,
      "ṯ": 1392,
      "Ẋ": 1393,
      "Ẍ": 1394,
      "ẓ": 1395,
      "ẞ": 1396,
      "ạ": 1397,
      "Ấ": 1398,
      "ầ": 1399,
      "ẽ": 1400,
      "ế": 1401,
      "ề": 1402,
      "ể": 1403,
      "ệ": 1404,
      "ỏ": 1405,
      "ố": 1406,
      "ộ": 1407,
      "Ớ": 1408,
      "ớ": 1409,
      "ờ": 1410,
      "ợ": 1411,
      "ủ": 1412,
      "Ử": 1413,
      "ữ": 1414,
      "ỵ": 1415,
      "ỹ": 1416,
      "ἀ": 1417,
      "ἁ": 1418,
      "ἄ": 1419,
      "ἆ": 1420,
      "Ἀ": 1421,
      "Ἁ": 1422,
      "ἐ": 1423,
      "ἑ": 1424,
      "ἒ": 1425,
      "ἔ": 1426,
      "ἡ": 1427,
      "ἦ": 1428,
      "Ἡ": 1429,
      "ἰ": 1430,
      "ἱ": 1431,
      "ἴ": 1432,
      "ἵ": 1433,
      "ἶ": 1434,
      "ἷ": 1435,
      "Ἰ": 1436,
      "ὀ": 1437,
      "ὃ": 1438,
      "ὅ": 1439,
      "Ὁ": 1440,
      "ὐ": 1441,
      "ὑ": 1442,
      "ὔ": 1443,
      "ὕ": 1444,
      "ὰ": 1445,
      "ὲ": 1446,
      "ὴ": 1447,
      "ὶ": 1448,
      "ὸ": 1449,
      "ᾳ": 1450,
      "ᾶ": 1451,
      "᾿": 1452,
      "ῃ": 1453,
      "ῖ": 1454,
      "ῥ": 1455,
      "ῦ": 1456,
      "ῳ": 1457,
      "ῶ": 1458,
      "ῷ": 1459,
      "῾": 1460,
      "​": 1461,
      "‌": 1462,
      "‍": 1463,
      "‎": 1464,
      "‏": 1465,
      "‐": 1466,
      "‑": 1467,
      "‒": 1468,
      "–": 1469,
      "—": 1470,
      "―": 1471,
      "‘": 1472,
      "’": 1473,
      "‚": 1474,
      "‛": 1475,
      "“": 1476,
      "”": 1477,
      "„": 1478,
      "†": 1479,
      "‡": 1480,
      "•": 1481,
      "‣": 1482,
      "…": 1483,
      "‪": 1484,
      "‫": 1485,
      "‬": 1486,
      "‭": 1487,
      "‰": 1488,
      "′": 1489,
      "″": 1490,
      "‹": 1491,
      "›": 1492,
      "※": 1493,
      "‼": 1494,
      "‾": 1495,
      "‿": 1496,
      "⁃": 1497,
      "⁄": 1498,
      "⁇": 1499,
      "⁠": 1500,
      "⁡": 1501,
      "⁣": 1502,
      "⁦": 1503,
      "⁨": 1504,
      "⁩": 1505,
      "⁰": 1506,
      "⁴": 1507,
      "⁺": 1508,
      "⁻": 1509,
      "₁": 1510,
      "₂": 1511,
      "₃": 1512,
      "₄": 1513,
      "₆": 1514,
      "₤": 1515,
      "₨": 1516,
      "₪": 1517,
      "€": 1518,
      "₰": 1519,
      "₱": 1520,
      "₹": 1521,
      "₺": 1522,
      "₽": 1523,
      "₿": 1524,
      "⃣": 1525,
      "ℂ": 1526,
      "℃": 1527,
      "℅": 1528,
      "℉": 1529,
      "ℍ": 1530,
      "ℎ": 1531,
      "ℓ": 1532,
      "ℕ": 1533,
      "№": 1534,
      "ℙ": 1535,
      "ℚ": 1536,
      "ℝ": 1537,
      "℠": 1538,
      "™": 1539,
      "ℤ": 1540,
      "⅓": 1541,
      "⅔": 1542,
      "⅛": 1543,
      "Ⅰ": 1544,
      "Ⅱ": 1545,
      "Ⅲ": 1546,
      "Ⅳ": 1547,
      "Ⅴ": 1548,
      "Ⅵ": 1549,
      "Ⅶ": 1550,
      "Ⅷ": 1551,
      "ⅼ": 1552,
      "←": 1553,
      "↑": 1554,
      "→": 1555,
      "↓": 1556,
      "↔": 1557,
      "↕": 1558,
      "↩": 1559,
      "↲": 1560,
      "↳": 1561,
      "↺": 1562,
      "↻": 1563,
      "⇌": 1564,
      "⇍": 1565,
      "⇎": 1566,
      "⇏": 1567,
      "⇒": 1568,
      "⇓": 1569,
      "⇔": 1570,
      "⇧": 1571,
      "∂": 1572,
      "∆": 1573,
      "∇": 1574,
      "−": 1575,
      "∕": 1576,
      "∗": 1577,
      "∘": 1578,
      "∙": 1579,
      "√": 1580,
      "∝": 1581,
      "∞": 1582,
      "∠": 1583,
      "∫": 1584,
      "∬": 1585,
      "∮": 1586,
      "∴": 1587,
      "∵": 1588,
      "∶": 1589,
      "∼": 1590,
      "≅": 1591,
      "≈": 1592,
      "≠": 1593,
      "≡": 1594,
      "≢": 1595,
      "≤": 1596,
      "≥": 1597,
      "≦": 1598,
      "≧": 1599,
      "≫": 1600,
      "≯": 1601,
      "⊕": 1602,
      "⊙": 1603,
      "⊥": 1604,
      "⊿": 1605,
      "⋃": 1606,
      "⋅": 1607,
      "⋆": 1608,
      "⋯": 1609,
      "⌊": 1610,
      "⌋": 1611,
      "⌘": 1612,
      "⌛": 1613,
      "⌥": 1614,
      "⍶": 1615,
      "⎆": 1616,
      "⎉": 1617,
      "⎋": 1618,
      "⎟": 1619,
      "⎮": 1620,
      "⎼": 1621,
      "⏎": 1622,
      "⏰": 1623,
      "⏱": 1624,
      "⏳": 1625,
      "⏺": 1626,
      "①": 1627,
      "②": 1628,
      "③": 1629,
      "④": 1630,
      "⑤": 1631,
      "⑥": 1632,
      "⑦": 1633,
      "⑧": 1634,
      "⑨": 1635,
      "⑴": 1636,
      "⑵": 1637,
      "⑶": 1638,
      "⑷": 1639,
      "⒈": 1640,
      "⒉": 1641,
      "⒊": 1642,
      "Ⓒ": 1643,
      "Ⓘ": 1644,
      "Ⓛ": 1645,
      "Ⓡ": 1646,
      "ⓒ": 1647,
      "ⓘ": 1648,
      "ⓥ": 1649,
      "ⓦ": 1650,
      "⓵": 1651,
      "⓶": 1652,
      "⓷": 1653,
      "⓸": 1654,
      "⓺": 1655,
      "⓼": 1656,
      "⓽": 1657,
      "⓾": 1658,
      "─": 1659,
      "│": 1660,
      "├": 1661,
      "╮": 1662,
      "╰": 1663,
      "▍": 1664,
      "■": 1665,
      "□": 1666,
      "▢": 1667,
      "▣": 1668,
      "▪": 1669,
      "▬": 1670,
      "▲": 1671,
      "△": 1672,
      "▴": 1673,
      "▶": 1674,
      "▷": 1675,
      "►": 1676,
      "▼": 1677,
      "▽": 1678,
      "▾": 1679,
      "◀": 1680,
      "◆": 1681,
      "◇": 1682,
      "◉": 1683,
      "◊": 1684,
      "○": 1685,
      "◎": 1686,
      "●": 1687,
      "◕": 1688,
      "◘": 1689,
      "◦": 1690,
      "◻": 1691,
      "◼": 1692,
      "◾": 1693,
      "☀": 1694,
      "☁": 1695,
      "☂": 1696,
      "☄": 1697,
      "★": 1698,
      "☆": 1699,
      "☉": 1700,
      "☎": 1701,
      "☑": 1702,
      "☔": 1703,
      "☕": 1704,
      "☘": 1705,
      "☝": 1706,
      "☠": 1707,
      "☪": 1708,
      "☰": 1709,
      "☸": 1710,
      "☹": 1711,
      "☺": 1712,
      "☻": 1713,
      "☼": 1714,
      "♀": 1715,
      "♂": 1716,
      "♋": 1717,
      "♌": 1718,
      "♍": 1719,
      "♎": 1720,
      "♏": 1721,
      "♐": 1722,
      "♑": 1723,
      "♔": 1724,
      "♚": 1725,
      "♠": 1726,
      "♡": 1727,
      "♢": 1728,
      "♣": 1729,
      "♤": 1730,
      "♥": 1731,
      "♦": 1732,
      "♪": 1733,
      "♫": 1734,
      "♬": 1735,
      "♭": 1736,
      "♯": 1737,
      "♳": 1738,
      "♴": 1739,
      "♵": 1740,
      "♻": 1741,
      "⚔": 1742,
      "⚕": 1743,
      "⚖": 1744,
      "⚘": 1745,
      "⚙": 1746,
      "⚛": 1747,
      "⚠": 1748,
      "⚡": 1749,
      "⚪": 1750,
      "⚫": 1751,
      "⚰": 1752,
      "⚽": 1753,
      "⛅": 1754,
      "⛳": 1755,
      "⛺": 1756,
      "⛽": 1757,
      "✂": 1758,
      "✅": 1759,
      "✈": 1760,
      "✉": 1761,
      "✊": 1762,
      "✋": 1763,
      "✌": 1764,
      "✍": 1765,
      "✏": 1766,
      "✒": 1767,
      "✓": 1768,
      "✔": 1769,
      "✖": 1770,
      "✗": 1771,
      "✚": 1772,
      "✛": 1773,
      "✦": 1774,
      "✨": 1775,
      "✪": 1776,
      "✫": 1777,
      "✬": 1778,
      "✭": 1779,
      "✮": 1780,
      "✯": 1781,
      "✰": 1782,
      "✳": 1783,
      "✴": 1784,
      "✽": 1785,
      "✿": 1786,
      "❁": 1787,
      "❄": 1788,
      "❇": 1789,
      "❌": 1790,
      "❓": 1791,
      "❖": 1792,
      "❗": 1793,
      "❝": 1794,
      "❞": 1795,
      "❣": 1796,
      "❤": 1797,
      "❮": 1798,
      "❶": 1799,
      "❷": 1800,
      "❸": 1801,
      "❹": 1802,
      "❺": 1803,
      "❻": 1804,
      "❼": 1805,
      "❽": 1806,
      "➊": 1807,
      "➋": 1808,
      "➌": 1809,
      "➍": 1810,
      "➎": 1811,
      "➏": 1812,
      "➐": 1813,
      "➑": 1814,
      "➒": 1815,
      "➔": 1816,
      "➖": 1817,
      "➜": 1818,
      "➝": 1819,
      "➡": 1820,
      "➢": 1821,
      "➤": 1822,
      "➥": 1823,
      "➦": 1824,
      "➧": 1825,
      "⟨": 1826,
      "⟩": 1827,
      "⟵": 1828,
      "⟶": 1829,
      "⠀": 1830,
      "⤵": 1831,
      "⦁": 1832,
      "⦿": 1833,
      "⧭": 1834,
      "⬅": 1835,
      "⬇": 1836,
      "⬗": 1837,
      "⬤": 1838,
      "⭐": 1839,
      "⭕": 1840,
      "⮚": 1841,
      "⮠": 1842,
      "⮣": 1843,
      "⮤": 1844,
      "⮧": 1845,
      "⽂": 1846,
      "、": 1847,
      "。": 1848,
      "〈": 1849,
      "〉": 1850,
      "《": 1851,
      "》": 1852,
      "「": 1853,
      "」": 1854,
      "【": 1855,
      "】": 1856,
      "〖": 1857,
      "あ": 1858,
      "い": 1859,
      "う": 1860,
      "え": 1861,
      "お": 1862,
      "か": 1863,
      "が": 1864,
      "き": 1865,
      "ぎ": 1866,
      "く": 1867,
      "け": 1868,
      "こ": 1869,
      "ご": 1870,
      "さ": 1871,
      "ざ": 1872,
      "し": 1873,
      "じ": 1874,
      "す": 1875,
      "そ": 1876,
      "た": 1877,
      "だ": 1878,
      "ち": 1879,
      "っ": 1880,
      "つ": 1881,
      "て": 1882,
      "で": 1883,
      "と": 1884,
      "ど": 1885,
      "な": 1886,
      "に": 1887,
      "の": 1888,
      "は": 1889,
      "ふ": 1890,
      "ほ": 1891,
      "ま": 1892,
      "も": 1893,
      "ゃ": 1894,
      "や": 1895,
      "ょ": 1896,
      "よ": 1897,
      "ら": 1898,
      "り": 1899,
      "る": 1900,
      "れ": 1901,
      "を": 1902,
      "ん": 1903,
      "ァ": 1904,
      "ア": 1905,
      "ィ": 1906,
      "イ": 1907,
      "ウ": 1908,
      "ェ": 1909,
      "エ": 1910,
      "オ": 1911,
      "ガ": 1912,
      "キ": 1913,
      "ク": 1914,
      "グ": 1915,
      "ケ": 1916,
      "コ": 1917,
      "ゴ": 1918,
      "サ": 1919,
      "シ": 1920,
      "ジ": 1921,
      "ス": 1922,
      "ズ": 1923,
      "タ": 1924,
      "ダ": 1925,
      "チ": 1926,
      "ッ": 1927,
      "ツ": 1928,
      "テ": 1929,
      "デ": 1930,
      "ト": 1931,
      "ド": 1932,
      "ナ": 1933,
      "ニ": 1934,
      "ハ": 1935,
      "バ": 1936,
      "パ": 1937,
      "ビ": 1938,
      "ピ": 1939,
      "フ": 1940,
      "ブ": 1941,
      "プ": 1942,
      "ベ": 1943,
      "ペ": 1944,
      "ボ": 1945,
      "ポ": 1946,
      "マ": 1947,
      "ミ": 1948,
      "ム": 1949,
      "メ": 1950,
      "ャ": 1951,
      "ョ": 1952,
      "ラ": 1953,
      "リ": 1954,
      "ル": 1955,
      "レ": 1956,
      "ロ": 1957,
      "ン": 1958,
      "ヴ": 1959,
      "・": 1960,
      "ー": 1961,
      "ㄩ": 1962,
      "ㅎ": 1963,
      "ㅡ": 1964,
      "㎜": 1965,
      "㎡": 1966,
      "一": 1967,
      "七": 1968,
      "万": 1969,
      "丈": 1970,
      "三": 1971,
      "上": 1972,
      "下": 1973,
      "不": 1974,
      "与": 1975,
      "世": 1976,
      "丙": 1977,
      "业": 1978,
      "东": 1979,
      "丨": 1980,
      "个": 1981,
      "中": 1982,
      "临": 1983,
      "为": 1984,
      "主": 1985,
      "久": 1986,
      "么": 1987,
      "乐": 1988,
      "乙": 1989,
      "九": 1990,
      "也": 1991,
      "乱": 1992,
      "乾": 1993,
      "于": 1994,
      "五": 1995,
      "井": 1996,
      "亚": 1997,
      "交": 1998,
      "产": 1999,
      "亨": 2000,
      "京": 2001,
      "人": 2002,
      "什": 2003,
      "仁": 2004,
      "仏": 2005,
      "付": 2006,
      "代": 2007,
      "以": 2008,
      "仮": 2009,
      "仰": 2010,
      "仲": 2011,
      "份": 2012,
      "企": 2013,
      "伙": 2014,
      "会": 2015,
      "传": 2016,
      "伤": 2017,
      "伯": 2018,
      "伴": 2019,
      "体": 2020,
      "作": 2021,
      "你": 2022,
      "使": 2023,
      "來": 2024,
      "侍": 2025,
      "侶": 2026,
      "信": 2027,
      "値": 2028,
      "做": 2029,
      "備": 2030,
      "傳": 2031,
      "像": 2032,
      "僧": 2033,
      "元": 2034,
      "先": 2035,
      "光": 2036,
      "克": 2037,
      "免": 2038,
      "児": 2039,
      "入": 2040,
      "全": 2041,
      "八": 2042,
      "公": 2043,
      "六": 2044,
      "共": 2045,
      "兵": 2046,
      "具": 2047,
      "典": 2048,
      "内": 2049,
      "军": 2050,
      "农": 2051,
      "冬": 2052,
      "冰": 2053,
      "凤": 2054,
      "出": 2055,
      "分": 2056,
      "创": 2057,
      "別": 2058,
      "利": 2059,
      "刮": 2060,
      "制": 2061,
      "刷": 2062,
      "刺": 2063,
      "前": 2064,
      "副": 2065,
      "割": 2066,
      "力": 2067,
      "功": 2068,
      "加": 2069,
      "务": 2070,
      "动": 2071,
      "劳": 2072,
      "勇": 2073,
      "包": 2074,
      "化": 2075,
      "北": 2076,
      "医": 2077,
      "區": 2078,
      "十": 2079,
      "千": 2080,
      "半": 2081,
      "华": 2082,
      "南": 2083,
      "博": 2084,
      "卦": 2085,
      "卫": 2086,
      "印": 2087,
      "即": 2088,
      "却": 2089,
      "原": 2090,
      "厥": 2091,
      "及": 2092,
      "友": 2093,
      "双": 2094,
      "反": 2095,
      "収": 2096,
      "发": 2097,
      "取": 2098,
      "口": 2099,
      "古": 2100,
      "可": 2101,
      "台": 2102,
      "史": 2103,
      "叶": 2104,
      "号": 2105,
      "合": 2106,
      "吉": 2107,
      "同": 2108,
      "名": 2109,
      "后": 2110,
      "吗": 2111,
      "君": 2112,
      "吨": 2113,
      "吳": 2114,
      "吴": 2115,
      "吸": 2116,
      "吾": 2117,
      "呢": 2118,
      "命": 2119,
      "和": 2120,
      "品": 2121,
      "哆": 2122,
      "唐": 2123,
      "唔": 2124,
      "售": 2125,
      "問": 2126,
      "啦": 2127,
      "善": 2128,
      "喻": 2129,
      "囊": 2130,
      "四": 2131,
      "回": 2132,
      "园": 2133,
      "固": 2134,
      "国": 2135,
      "图": 2136,
      "國": 2137,
      "園": 2138,
      "圖": 2139,
      "土": 2140,
      "在": 2141,
      "地": 2142,
      "均": 2143,
      "型": 2144,
      "城": 2145,
      "基": 2146,
      "報": 2147,
      "場": 2148,
      "境": 2149,
      "増": 2150,
      "士": 2151,
      "壽": 2152,
      "处": 2153,
      "备": 2154,
      "复": 2155,
      "夏": 2156,
      "外": 2157,
      "夜": 2158,
      "夢": 2159,
      "大": 2160,
      "天": 2161,
      "太": 2162,
      "夫": 2163,
      "失": 2164,
      "头": 2165,
      "夹": 2166,
      "奇": 2167,
      "套": 2168,
      "奶": 2169,
      "好": 2170,
      "如": 2171,
      "妇": 2172,
      "妓": 2173,
      "妻": 2174,
      "始": 2175,
      "婦": 2176,
      "子": 2177,
      "字": 2178,
      "孙": 2179,
      "孝": 2180,
      "孟": 2181,
      "学": 2182,
      "孫": 2183,
      "學": 2184,
      "它": 2185,
      "宅": 2186,
      "安": 2187,
      "宋": 2188,
      "宗": 2189,
      "官": 2190,
      "定": 2191,
      "实": 2192,
      "実": 2193,
      "家": 2194,
      "宿": 2195,
      "富": 2196,
      "寒": 2197,
      "寶": 2198,
      "寸": 2199,
      "对": 2200,
      "导": 2201,
      "寿": 2202,
      "專": 2203,
      "小": 2204,
      "尖": 2205,
      "尚": 2206,
      "就": 2207,
      "尺": 2208,
      "居": 2209,
      "展": 2210,
      "属": 2211,
      "山": 2212,
      "岐": 2213,
      "岭": 2214,
      "峦": 2215,
      "崎": 2216,
      "川": 2217,
      "巴": 2218,
      "市": 2219,
      "布": 2220,
      "帝": 2221,
      "師": 2222,
      "帶": 2223,
      "常": 2224,
      "幕": 2225,
      "年": 2226,
      "广": 2227,
      "庆": 2228,
      "庇": 2229,
      "应": 2230,
      "府": 2231,
      "度": 2232,
      "廣": 2233,
      "建": 2234,
      "开": 2235,
      "弓": 2236,
      "张": 2237,
      "張": 2238,
      "強": 2239,
      "录": 2240,
      "形": 2241,
      "彫": 2242,
      "影": 2243,
      "役": 2244,
      "往": 2245,
      "後": 2246,
      "徐": 2247,
      "御": 2248,
      "循": 2249,
      "徳": 2250,
      "德": 2251,
      "心": 2252,
      "必": 2253,
      "忍": 2254,
      "忠": 2255,
      "快": 2256,
      "念": 2257,
      "思": 2258,
      "急": 2259,
      "性": 2260,
      "恋": 2261,
      "悌": 2262,
      "您": 2263,
      "情": 2264,
      "惇": 2265,
      "惟": 2266,
      "想": 2267,
      "意": 2268,
      "愛": 2269,
      "感": 2270,
      "慧": 2271,
      "懸": 2272,
      "戀": 2273,
      "成": 2274,
      "我": 2275,
      "戒": 2276,
      "或": 2277,
      "户": 2278,
      "戸": 2279,
      "所": 2280,
      "手": 2281,
      "才": 2282,
      "技": 2283,
      "报": 2284,
      "抹": 2285,
      "抽": 2286,
      "择": 2287,
      "括": 2288,
      "拳": 2289,
      "拾": 2290,
      "拿": 2291,
      "持": 2292,
      "指": 2293,
      "挥": 2294,
      "捨": 2295,
      "掌": 2296,
      "接": 2297,
      "推": 2298,
      "掳": 2299,
      "揮": 2300,
      "携": 2301,
      "摄": 2302,
      "收": 2303,
      "改": 2304,
      "政": 2305,
      "敎": 2306,
      "教": 2307,
      "散": 2308,
      "敬": 2309,
      "敵": 2310,
      "文": 2311,
      "料": 2312,
      "斬": 2313,
      "斯": 2314,
      "新": 2315,
      "方": 2316,
      "施": 2317,
      "旅": 2318,
      "族": 2319,
      "无": 2320,
      "既": 2321,
      "日": 2322,
      "早": 2323,
      "时": 2324,
      "昇": 2325,
      "明": 2326,
      "易": 2327,
      "星": 2328,
      "春": 2329,
      "是": 2330,
      "時": 2331,
      "普": 2332,
      "景": 2333,
      "智": 2334,
      "暗": 2335,
      "書": 2336,
      "最": 2337,
      "會": 2338,
      "月": 2339,
      "有": 2340,
      "服": 2341,
      "望": 2342,
      "木": 2343,
      "未": 2344,
      "本": 2345,
      "术": 2346,
      "朱": 2347,
      "杂": 2348,
      "李": 2349,
      "杏": 2350,
      "材": 2351,
      "条": 2352,
      "来": 2353,
      "杨": 2354,
      "東": 2355,
      "极": 2356,
      "果": 2357,
      "柏": 2358,
      "柔": 2359,
      "柱": 2360,
      "样": 2361,
      "根": 2362,
      "格": 2363,
      "桂": 2364,
      "桃": 2365,
      "案": 2366,
      "梓": 2367,
      "條": 2368,
      "梨": 2369,
      "棉": 2370,
      "森": 2371,
      "楊": 2372,
      "業": 2373,
      "極": 2374,
      "様": 2375,
      "樁": 2376,
      "樂": 2377,
      "樑": 2378,
      "樓": 2379,
      "樹": 2380,
      "欲": 2381,
      "款": 2382,
      "歌": 2383,
      "正": 2384,
      "武": 2385,
      "歴": 2386,
      "死": 2387,
      "殊": 2388,
      "段": 2389,
      "毅": 2390,
      "毛": 2391,
      "氏": 2392,
      "民": 2393,
      "气": 2394,
      "気": 2395,
      "氣": 2396,
      "水": 2397,
      "汉": 2398,
      "汗": 2399,
      "江": 2400,
      "沈": 2401,
      "没": 2402,
      "河": 2403,
      "泉": 2404,
      "法": 2405,
      "泡": 2406,
      "波": 2407,
      "注": 2408,
      "洋": 2409,
      "洛": 2410,
      "津": 2411,
      "洲": 2412,
      "派": 2413,
      "流": 2414,
      "浅": 2415,
      "浦": 2416,
      "海": 2417,
      "液": 2418,
      "温": 2419,
      "港": 2420,
      "游": 2421,
      "湯": 2422,
      "源": 2423,
      "準": 2424,
      "溪": 2425,
      "溫": 2426,
      "滄": 2427,
      "滑": 2428,
      "漢": 2429,
      "漬": 2430,
      "澳": 2431,
      "火": 2432,
      "灸": 2433,
      "灼": 2434,
      "点": 2435,
      "烏": 2436,
      "烟": 2437,
      "热": 2438,
      "烯": 2439,
      "焘": 2440,
      "無": 2441,
      "焦": 2442,
      "然": 2443,
      "煦": 2444,
      "熱": 2445,
      "燥": 2446,
      "燭": 2447,
      "燾": 2448,
      "爪": 2449,
      "爸": 2450,
      "物": 2451,
      "特": 2452,
      "狐": 2453,
      "狸": 2454,
      "猴": 2455,
      "獄": 2456,
      "獼": 2457,
      "玄": 2458,
      "率": 2459,
      "玉": 2460,
      "王": 2461,
      "环": 2462,
      "珍": 2463,
      "珠": 2464,
      "班": 2465,
      "現": 2466,
      "球": 2467,
      "理": 2468,
      "環": 2469,
      "甘": 2470,
      "甜": 2471,
      "生": 2472,
      "用": 2473,
      "甫": 2474,
      "田": 2475,
      "由": 2476,
      "甲": 2477,
      "电": 2478,
      "男": 2479,
      "画": 2480,
      "界": 2481,
      "異": 2482,
      "疆": 2483,
      "疗": 2484,
      "疫": 2485,
      "疲": 2486,
      "病": 2487,
      "痧": 2488,
      "療": 2489,
      "登": 2490,
      "發": 2491,
      "白": 2492,
      "百": 2493,
      "的": 2494,
      "皆": 2495,
      "皇": 2496,
      "目": 2497,
      "直": 2498,
      "相": 2499,
      "省": 2500,
      "看": 2501,
      "眞": 2502,
      "真": 2503,
      "知": 2504,
      "研": 2505,
      "破": 2506,
      "硬": 2507,
      "碗": 2508,
      "磐": 2509,
      "礼": 2510,
      "社": 2511,
      "祖": 2512,
      "神": 2513,
      "祭": 2514,
      "禁": 2515,
      "福": 2516,
      "禪": 2517,
      "禮": 2518,
      "秀": 2519,
      "科": 2520,
      "秘": 2521,
      "秦": 2522,
      "程": 2523,
      "稚": 2524,
      "穗": 2525,
      "穴": 2526,
      "究": 2527,
      "空": 2528,
      "穿": 2529,
      "突": 2530,
      "窗": 2531,
      "立": 2532,
      "站": 2533,
      "竞": 2534,
      "童": 2535,
      "竹": 2536,
      "笋": 2537,
      "筆": 2538,
      "筍": 2539,
      "筒": 2540,
      "签": 2541,
      "简": 2542,
      "箭": 2543,
      "箱": 2544,
      "節": 2545,
      "築": 2546,
      "类": 2547,
      "粤": 2548,
      "粮": 2549,
      "精": 2550,
      "紅": 2551,
      "素": 2552,
      "紫": 2553,
      "経": 2554,
      "給": 2555,
      "絵": 2556,
      "絹": 2557,
      "經": 2558,
      "綠": 2559,
      "綱": 2560,
      "総": 2561,
      "緣": 2562,
      "編": 2563,
      "繁": 2564,
      "繼": 2565,
      "續": 2566,
      "红": 2567,
      "纲": 2568,
      "纳": 2569,
      "线": 2570,
      "组": 2571,
      "织": 2572,
      "经": 2573,
      "结": 2574,
      "络": 2575,
      "绝": 2576,
      "继": 2577,
      "缘": 2578,
      "网": 2579,
      "置": 2580,
      "罷": 2581,
      "羅": 2582,
      "義": 2583,
      "羽": 2584,
      "翼": 2585,
      "老": 2586,
      "者": 2587,
      "耳": 2588,
      "联": 2589,
      "聚": 2590,
      "職": 2591,
      "肝": 2592,
      "肠": 2593,
      "育": 2594,
      "肺": 2595,
      "肾": 2596,
      "胃": 2597,
      "胆": 2598,
      "胱": 2599,
      "胶": 2600,
      "胸": 2601,
      "能": 2602,
      "脏": 2603,
      "脱": 2604,
      "脾": 2605,
      "腑": 2606,
      "腧": 2607,
      "腳": 2608,
      "膀": 2609,
      "臺": 2610,
      "臼": 2611,
      "良": 2612,
      "色": 2613,
      "节": 2614,
      "芦": 2615,
      "花": 2616,
      "芳": 2617,
      "芸": 2618,
      "苏": 2619,
      "英": 2620,
      "茅": 2621,
      "茶": 2622,
      "草": 2623,
      "荟": 2624,
      "荷": 2625,
      "莊": 2626,
      "菊": 2627,
      "華": 2628,
      "萄": 2629,
      "落": 2630,
      "葉": 2631,
      "著": 2632,
      "葡": 2633,
      "葬": 2634,
      "蒙": 2635,
      "蔡": 2636,
      "藤": 2637,
      "蜜": 2638,
      "衆": 2639,
      "行": 2640,
      "術": 2641,
      "表": 2642,
      "袋": 2643,
      "袖": 2644,
      "装": 2645,
      "襲": 2646,
      "西": 2647,
      "要": 2648,
      "見": 2649,
      "角": 2650,
      "解": 2651,
      "言": 2652,
      "詞": 2653,
      "試": 2654,
      "話": 2655,
      "誉": 2656,
      "誌": 2657,
      "語": 2658,
      "誠": 2659,
      "談": 2660,
      "論": 2661,
      "謐": 2662,
      "謙": 2663,
      "證": 2664,
      "護": 2665,
      "论": 2666,
      "设": 2667,
      "证": 2668,
      "译": 2669,
      "话": 2670,
      "该": 2671,
      "请": 2672,
      "谢": 2673,
      "谦": 2674,
      "谧": 2675,
      "谷": 2676,
      "象": 2677,
      "豪": 2678,
      "負": 2679,
      "貨": 2680,
      "貴": 2681,
      "資": 2682,
      "賡": 2683,
      "负": 2684,
      "账": 2685,
      "质": 2686,
      "赛": 2687,
      "赤": 2688,
      "超": 2689,
      "越": 2690,
      "足": 2691,
      "跆": 2692,
      "路": 2693,
      "蹴": 2694,
      "身": 2695,
      "躾": 2696,
      "転": 2697,
      "轮": 2698,
      "载": 2699,
      "辛": 2700,
      "辞": 2701,
      "辨": 2702,
      "辱": 2703,
      "运": 2704,
      "这": 2705,
      "迪": 2706,
      "适": 2707,
      "选": 2708,
      "透": 2709,
      "通": 2710,
      "逢": 2711,
      "連": 2712,
      "進": 2713,
      "逸": 2714,
      "道": 2715,
      "邈": 2716,
      "邓": 2717,
      "那": 2718,
      "部": 2719,
      "都": 2720,
      "鄧": 2721,
      "醫": 2722,
      "里": 2723,
      "重": 2724,
      "量": 2725,
      "金": 2726,
      "針": 2727,
      "鉴": 2728,
      "銀": 2729,
      "銅": 2730,
      "銆": 2731,
      "錦": 2732,
      "鍼": 2733,
      "鐵": 2734,
      "鑒": 2735,
      "针": 2736,
      "钢": 2737,
      "钦": 2738,
      "铁": 2739,
      "铜": 2740,
      "链": 2741,
      "锡": 2742,
      "锦": 2743,
      "長": 2744,
      "門": 2745,
      "開": 2746,
      "门": 2747,
      "问": 2748,
      "阪": 2749,
      "防": 2750,
      "阿": 2751,
      "陆": 2752,
      "院": 2753,
      "陳": 2754,
      "陽": 2755,
      "隅": 2756,
      "際": 2757,
      "集": 2758,
      "雜": 2759,
      "雨": 2760,
      "雷": 2761,
      "震": 2762,
      "霊": 2763,
      "霸": 2764,
      "靈": 2765,
      "靚": 2766,
      "非": 2767,
      "鞠": 2768,
      "鞭": 2769,
      "韧": 2770,
      "響": 2771,
      "順": 2772,
      "頼": 2773,
      "页": 2774,
      "项": 2775,
      "顺": 2776,
      "風": 2777,
      "风": 2778,
      "飛": 2779,
      "食": 2780,
      "香": 2781,
      "験": 2782,
      "騰": 2783,
      "验": 2784,
      "體": 2785,
      "高": 2786,
      "鲲": 2787,
      "鳳": 2788,
      "鹏": 2789,
      "麻": 2790,
      "黃": 2791,
      "黄": 2792,
      "鼓": 2793,
      "龄": 2794,
      "龍": 2795,
      "龙": 2796,
      "꙳": 2797,
      "Ꝛ": 2798,
      "ꣳ": 2799,
      "갈": 2800,
      "겨": 2801,
      "격": 2802,
      "경": 2803,
      "계": 2804,
      "과": 2805,
      "국": 2806,
      "권": 2807,
      "그": 2808,
      "기": 2809,
      "나": 2810,
      "남": 2811,
      "다": 2812,
      "대": 2813,
      "던": 2814,
      "도": 2815,
      "돌": 2816,
      "동": 2817,
      "뒤": 2818,
      "떨": 2819,
      "려": 2820,
      "렷": 2821,
      "례": 2822,
      "로": 2823,
      "료": 2824,
      "루": 2825,
      "룹": 2826,
      "림": 2827,
      "만": 2828,
      "맞": 2829,
      "명": 2830,
      "무": 2831,
      "바": 2832,
      "방": 2833,
      "백": 2834,
      "벅": 2835,
      "별": 2836,
      "부": 2837,
      "비": 2838,
      "사": 2839,
      "산": 2840,
      "삼": 2841,
      "새": 2842,
      "서": 2843,
      "성": 2844,
      "소": 2845,
      "속": 2846,
      "손": 2847,
      "수": 2848,
      "술": 2849,
      "쉬": 2850,
      "스": 2851,
      "시": 2852,
      "신": 2853,
      "실": 2854,
      "아": 2855,
      "어": 2856,
      "얻": 2857,
      "여": 2858,
      "연": 2859,
      "오": 2860,
      "올": 2861,
      "요": 2862,
      "운": 2863,
      "워": 2864,
      "웠": 2865,
      "은": 2866,
      "을": 2867,
      "이": 2868,
      "일": 2869,
      "있": 2870,
      "작": 2871,
      "재": 2872,
      "전": 2873,
      "족": 2874,
      "좋": 2875,
      "주": 2876,
      "준": 2877,
      "지": 2878,
      "차": 2879,
      "창": 2880,
      "천": 2881,
      "최": 2882,
      "타": 2883,
      "태": 2884,
      "통": 2885,
      "틀": 2886,
      "파": 2887,
      "판": 2888,
      "팔": 2889,
      "평": 2890,
      "품": 2891,
      "픽": 2892,
      "한": 2893,
      "합": 2894,
      "해": 2895,
      "행": 2896,
      "형": 2897,
      "호": 2898,
      "": 2899,
      "": 2900,
      "": 2901,
      "": 2902,
      "": 2903,
      "": 2904,
      "": 2905,
      "": 2906,
      "": 2907,
      "": 2908,
      "": 2909,
      "": 2910,
      "": 2911,
      "": 2912,
      "": 2913,
      "": 2914,
      "": 2915,
      "": 2916,
      "": 2917,
      "": 2918,
      "": 2919,
      "": 2920,
      "": 2921,
      "": 2922,
      "": 2923,
      "": 2924,
      "": 2925,
      "": 2926,
      "": 2927,
      "": 2928,
      "": 2929,
      "": 2930,
      "": 2931,
      "": 2932,
      "": 2933,
      "": 2934,
      "": 2935,
      "": 2936,
      "": 2937,
      "": 2938,
      "": 2939,
      "": 2940,
      "": 2941,
      "": 2942,
      "": 2943,
      "": 2944,
      "": 2945,
      "": 2946,
      "": 2947,
      "": 2948,
      "": 2949,
      "": 2950,
      "": 2951,
      "": 2952,
      "": 2953,
      "": 2954,
      "": 2955,
      "": 2956,
      "": 2957,
      "": 2958,
      "": 2959,
      "": 2960,
      "": 2961,
      "": 2962,
      "": 2963,
      "": 2964,
      "": 2965,
      "": 2966,
      "": 2967,
      "": 2968,
      "": 2969,
      "": 2970,
      "": 2971,
      "": 2972,
      "": 2973,
      "": 2974,
      "": 2975,
      "": 2976,
      "": 2977,
      "": 2978,
      "": 2979,
      "": 2980,
      "": 2981,
      "": 2982,
      "": 2983,
      "": 2984,
      "": 2985,
      "": 2986,
      "": 2987,
      "": 2988,
      "": 2989,
      "": 2990,
      "ﬁ": 2991,
      "ﷲ": 2992,
      "ﷺ": 2993,
      "︎": 2994,
      "️": 2995,
      "︱": 2996,
      "︵": 2997,
      "﹑": 2998,
      "﹝": 2999,
      "﹞": 3000,
      "﹢": 3001,
      "﻿": 3002,
      "！": 3003,
      "＆": 3004,
      "（": 3005,
      "）": 3006,
      "，": 3007,
      "／": 3008,
      "：": 3009,
      "；": 3010,
      "＜": 3011,
      "＞": 3012,
      "？": 3013,
      "～": 3014,
      "｡": 3015,
      "ﾬ": 3016,
      "￠": 3017,
      "￰": 3018,
      "￼": 3019,
      "�": 3020,
      "￿": 3021,
      "𝐁": 3022,
      "𝐦": 3023,
      "𝐭": 3024,
      "𝐵": 3025,
      "𝐸": 3026,
      "𝐹": 3027,
      "𝐻": 3028,
      "𝐼": 3029,
      "𝐿": 3030,
      "𝑀": 3031,
      "𝑅": 3032,
      "𝑒": 3033,
      "𝑔": 3034,
      "𝑜": 3035,
      "𝒜": 3036,
      "𝒞": 3037,
      "𝒟": 3038,
      "𝒢": 3039,
      "𝒥": 3040,
      "𝒦": 3041,
      "𝒩": 3042,
      "𝒪": 3043,
      "𝒫": 3044,
      "𝒬": 3045,
      "𝒮": 3046,
      "𝒯": 3047,
      "𝒰": 3048,
      "𝒱": 3049,
      "𝒲": 3050,
      "𝒳": 3051,
      "𝒴": 3052,
      "𝒵": 3053,
      "𝒶": 3054,
      "𝒷": 3055,
      "𝒸": 3056,
      "𝒹": 3057,
      "𝒻": 3058,
      "𝒽": 3059,
      "𝒾": 3060,
      "𝒿": 3061,
      "𝓀": 3062,
      "𝓁": 3063,
      "𝓂": 3064,
      "𝓃": 3065,
      "𝓅": 3066,
      "𝓆": 3067,
      "𝓇": 3068,
      "𝓈": 3069,
      "𝓉": 3070,
      "𝓊": 3071,
      "𝓋": 3072,
      "𝓌": 3073,
      "𝓍": 3074,
      "𝓎": 3075,
      "𝓏": 3076,
      "𝓧": 3077,
      "𝓯": 3078,
      "𝓷": 3079,
      "𝓸": 3080,
      "𝓽": 3081,
      "𝔰": 3082,
      "𝔸": 3083,
      "𝔹": 3084,
      "𝔻": 3085,
      "𝔼": 3086,
      "𝔽": 3087,
      "𝔾": 3088,
      "𝕀": 3089,
      "𝕁": 3090,
      "𝕂": 3091,
      "𝕃": 3092,
      "𝕄": 3093,
      "𝕆": 3094,
      "𝕊": 3095,
      "𝕋": 3096,
      "𝕌": 3097,
      "𝕍": 3098,
      "𝕎": 3099,
      "𝕏": 3100,
      "𝕐": 3101,
      "𝕒": 3102,
      "𝕓": 3103,
      "𝕔": 3104,
      "𝕕": 3105,
      "𝕖": 3106,
      "𝕗": 3107,
      "𝕘": 3108,
      "𝕙": 3109,
      "𝕚": 3110,
      "𝕛": 3111,
      "𝕜": 3112,
      "𝕝": 3113,
      "𝕞": 3114,
      "𝕟": 3115,
      "𝕠": 3116,
      "𝕡": 3117,
      "𝕢": 3118,
      "𝕣": 3119,
      "𝕤": 3120,
      "𝕥": 3121,
      "𝕦": 3122,
      "𝕧": 3123,
      "𝕨": 3124,
      "𝕩": 3125,
      "𝕪": 3126,
      "𝕫": 3127,
      "𝖆": 3128,
      "𝖉": 3129,
      "𝖊": 3130,
      "𝖋": 3131,
      "𝖎": 3132,
      "𝖑": 3133,
      "𝖒": 3134,
      "𝖓": 3135,
      "𝖔": 3136,
      "𝖙": 3137,
      "𝖛": 3138,
      "𝙰": 3139,
      "𝙳": 3140,
      "𝙸": 3141,
      "𝙺": 3142,
      "𝙼": 3143,
      "𝙽": 3144,
      "𝙾": 3145,
      "𝚂": 3146,
      "𝚈": 3147,
      "🀄": 3148,
      "🀧": 3149,
      "🁰": 3150,
      "🂓": 3151,
      "🅰": 3152,
      "🅾": 3153,
      "🇦": 3154,
      "🇧": 3155,
      "🇨": 3156,
      "🇪": 3157,
      "🇫": 3158,
      "🇬": 3159,
      "🇮": 3160,
      "🇱": 3161,
      "🇲": 3162,
      "🇳": 3163,
      "🇵": 3164,
      "🇷": 3165,
      "🇸": 3166,
      "🇹": 3167,
      "🇺": 3168,
      "🇽": 3169,
      "🇿": 3170,
      "🌀": 3171,
      "🌄": 3172,
      "🌅": 3173,
      "🌈": 3174,
      "🌊": 3175,
      "🌋": 3176,
      "🌍": 3177,
      "🌎": 3178,
      "🌏": 3179,
      "🌐": 3180,
      "🌞": 3181,
      "🌟": 3182,
      "🌦": 3183,
      "🌭": 3184,
      "🌱": 3185,
      "🌲": 3186,
      "🌳": 3187,
      "🌴": 3188,
      "🌷": 3189,
      "🌸": 3190,
      "🌹": 3191,
      "🌺": 3192,
      "🌻": 3193,
      "🌼": 3194,
      "🌾": 3195,
      "🌿": 3196,
      "🍀": 3197,
      "🍁": 3198,
      "🍂": 3199,
      "🍃": 3200,
      "🍅": 3201,
      "🍇": 3202,
      "🍈": 3203,
      "🍉": 3204,
      "🍊": 3205,
      "🍋": 3206,
      "🍌": 3207,
      "🍍": 3208,
      "🍎": 3209,
      "🍏": 3210,
      "🍐": 3211,
      "🍑": 3212,
      "🍒": 3213,
      "🍓": 3214,
      "🍚": 3215,
      "🍛": 3216,
      "🍫": 3217,
      "🍬": 3218,
      "🍯": 3219,
      "🍺": 3220,
      "🍻": 3221,
      "🍾": 3222,
      "🎁": 3223,
      "🎂": 3224,
      "🎃": 3225,
      "🎄": 3226,
      "🎆": 3227,
      "🎈": 3228,
      "🎉": 3229,
      "🎊": 3230,
      "🎋": 3231,
      "🎎": 3232,
      "🎑": 3233,
      "🎓": 3234,
      "🎖": 3235,
      "🎙": 3236,
      "🎠": 3237,
      "🎡": 3238,
      "🎤": 3239,
      "🎥": 3240,
      "🎧": 3241,
      "🎨": 3242,
      "🎪": 3243,
      "🎬": 3244,
      "🎭": 3245,
      "🎯": 3246,
      "🎲": 3247,
      "🎶": 3248,
      "🎹": 3249,
      "🎼": 3250,
      "🏁": 3251,
      "🏄": 3252,
      "🏅": 3253,
      "🏆": 3254,
      "🏈": 3255,
      "🏏": 3256,
      "🏓": 3257,
      "🏛": 3258,
      "🏝": 3259,
      "🏞": 3260,
      "🏠": 3261,
      "🏡": 3262,
      "🏩": 3263,
      "🏵": 3264,
      "🏻": 3265,
      "🏼": 3266,
      "🏽": 3267,
      "🏾": 3268,
      "🏿": 3269,
      "🐂": 3270,
      "🐅": 3271,
      "🐇": 3272,
      "🐉": 3273,
      "🐌": 3274,
      "🐍": 3275,
      "🐎": 3276,
      "🐒": 3277,
      "🐕": 3278,
      "🐘": 3279,
      "🐝": 3280,
      "🐣": 3281,
      "🐤": 3282,
      "🐥": 3283,
      "🐦": 3284,
      "🐮": 3285,
      "🐯": 3286,
      "🐱": 3287,
      "🐷": 3288,
      "🐸": 3289,
      "🐻": 3290,
      "🐿": 3291,
      "👀": 3292,
      "👄": 3293,
      "👆": 3294,
      "👇": 3295,
      "👈": 3296,
      "👉": 3297,
      "👋": 3298,
      "👌": 3299,
      "👍": 3300,
      "👏": 3301,
      "👑": 3302,
      "👠": 3303,
      "👤": 3304,
      "👨": 3305,
      "👩": 3306,
      "👪": 3307,
      "👫": 3308,
      "👭": 3309,
      "👰": 3310,
      "👱": 3311,
      "👳": 3312,
      "👴": 3313,
      "👾": 3314,
      "💃": 3315,
      "💋": 3316,
      "💌": 3317,
      "💍": 3318,
      "💐": 3319,
      "💓": 3320,
      "💔": 3321,
      "💕": 3322,
      "💖": 3323,
      "💗": 3324,
      "💙": 3325,
      "💚": 3326,
      "💛": 3327,
      "💜": 3328,
      "💝": 3329,
      "💞": 3330,
      "💟": 3331,
      "💠": 3332,
      "💡": 3333,
      "💢": 3334,
      "💥": 3335,
      "💦": 3336,
      "💪": 3337,
      "💫": 3338,
      "💬": 3339,
      "💯": 3340,
      "💰": 3341,
      "💵": 3342,
      "💸": 3343,
      "💻": 3344,
      "📈": 3345,
      "📊": 3346,
      "📋": 3347,
      "📌": 3348,
      "📍": 3349,
      "📏": 3350,
      "📖": 3351,
      "📙": 3352,
      "📚": 3353,
      "📝": 3354,
      "📞": 3355,
      "📢": 3356,
      "📱": 3357,
      "📲": 3358,
      "📷": 3359,
      "📸": 3360,
      "📿": 3361,
      "🔆": 3362,
      "🔊": 3363,
      "🔋": 3364,
      "🔍": 3365,
      "🔐": 3366,
      "🔑": 3367,
      "🔖": 3368,
      "🔘": 3369,
      "🔝": 3370,
      "🔥": 3371,
      "🔪": 3372,
      "🔯": 3373,
      "🔰": 3374,
      "🔱": 3375,
      "🔴": 3376,
      "🔵": 3377,
      "🔶": 3378,
      "🔷": 3379,
      "🔸": 3380,
      "🔹": 3381,
      "🔺": 3382,
      "🔻": 3383,
      "🔽": 3384,
      "🕉": 3385,
      "🕊": 3386,
      "🕐": 3387,
      "🕜": 3388,
      "🕤": 3389,
      "🕧": 3390,
      "🕯": 3391,
      "🕵": 3392,
      "🕹": 3393,
      "🖊": 3394,
      "🖋": 3395,
      "🖕": 3396,
      "🖤": 3397,
      "🖥": 3398,
      "🗣": 3399,
      "🗽": 3400,
      "😀": 3401,
      "😁": 3402,
      "😂": 3403,
      "😃": 3404,
      "😄": 3405,
      "😅": 3406,
      "😆": 3407,
      "😇": 3408,
      "😈": 3409,
      "😉": 3410,
      "😊": 3411,
      "😋": 3412,
      "😌": 3413,
      "😍": 3414,
      "😎": 3415,
      "😏": 3416,
      "😐": 3417,
      "😑": 3418,
      "😒": 3419,
      "😓": 3420,
      "😔": 3421,
      "😕": 3422,
      "😘": 3423,
      "😚": 3424,
      "😛": 3425,
      "😜": 3426,
      "😝": 3427,
      "😞": 3428,
      "😠": 3429,
      "😡": 3430,
      "😢": 3431,
      "😣": 3432,
      "😤": 3433,
      "😥": 3434,
      "😦": 3435,
      "😧": 3436,
      "😨": 3437,
      "😪": 3438,
      "😫": 3439,
      "😬": 3440,
      "😭": 3441,
      "😮": 3442,
      "😰": 3443,
      "😱": 3444,
      "😲": 3445,
      "😳": 3446,
      "😷": 3447,
      "😼": 3448,
      "🙁": 3449,
      "🙂": 3450,
      "🙃": 3451,
      "🙄": 3452,
      "🙅": 3453,
      "🙆": 3454,
      "🙇": 3455,
      "🙈": 3456,
      "🙌": 3457,
      "🙏": 3458,
      "🚀": 3459,
      "🚇": 3460,
      "🚑": 3461,
      "🚘": 3462,
      "🚨": 3463,
      "🚩": 3464,
      "🚫": 3465,
      "🚬": 3466,
      "🛌": 3467,
      "🛑": 3468,
      "🛕": 3469,
      "🛫": 3470,
      "🛰": 3471,
      "🞄": 3472,
      "🟢": 3473,
      "🠓": 3474,
      "🤐": 3475,
      "🤑": 3476,
      "🤓": 3477,
      "🤔": 3478,
      "🤗": 3479,
      "🤘": 3480,
      "🤝": 3481,
      "🤣": 3482,
      "🤤": 3483,
      "🤦": 3484,
      "🤨": 3485,
      "🤩": 3486,
      "🤪": 3487,
      "🤯": 3488,
      "🤰": 3489,
      "🤲": 3490,
      "🤵": 3491,
      "🤷": 3492,
      "🥀": 3493,
      "🥂": 3494,
      "🥇": 3495,
      "🥈": 3496,
      "🥉": 3497,
      "🥎": 3498,
      "🥑": 3499,
      "🥔": 3500,
      "🥕": 3501,
      "🥖": 3502,
      "🥥": 3503,
      "🥬": 3504,
      "🥭": 3505,
      "🥰": 3506,
      "🥱": 3507,
      "🥳": 3508,
      "🥸": 3509,
      "🥺": 3510,
      "🦄": 3511,
      "🦋": 3512,
      "🦟": 3513,
      "🦥": 3514,
      "🦸": 3515,
      "🧂": 3516,
      "🧊": 3517,
      "🧐": 3518,
      "🧘": 3519,
      "🧚": 3520,
      "🧡": 3521,
      "🧩": 3522,
      "🧵": 3523,
      "🪔": 3524,
      "🪰": 3525,
      "🪷": 3526,
      "🫂": 3527,
      "𠮑": 3528,
      "𠮒": 3529,
      "𠮔": 3530,
      "𠮕": 3531,
      "󾌵": 3532,
      "􀂄": 3533,
      "ಲ್": 3534,
      "ತ್": 3535,
      "ಿದ": 3536,
      "ನ್": 3537,
      "ಾರ": 3538,
      "ಲ್ಲ": 3539,
      "ಂದ": 3540,
      "್ರ": 3541,
      "ರು": 3542,
      "ಾಗ": 3543,
      "ತ್ತ": 3544,
      "ನ್ನ": 3545,
      "ಕ್": 3546,
      "ಸ್": 3547,
      "ಗಳ": 3548,
      "ರ್": 3549,
      "ಿಸ": 3550,
      "ಗೆ": 3551,
      "ಲ್ಲಿ": 3552,
      "್ಯ": 3553,
      "್ದ": 3554,
      "ರಿ": 3555,
      "ನ್ನು": 3556,
      "ಮಾ": 3557,
      "ೆಯ": 3558,
      "ನಿ": 3559,
      "ವಿ": 3560,
      "ಿದ್ದ": 3561,
      "ತಿ": 3562,
      "ಕೆ": 3563,
      "ಪ್ರ": 3564,
      "ಟ್": 3565,
      "ುವ": 3566,
      "ಡಿ": 3567,
      "ುತ್ತ": 3568,
      "ದು": 3569,
      "ಿದೆ": 3570,
      "ಾಗಿ": 3571,
      "ನಾ": 3572,
      "ರಾ": 3573,
      "ಂದು": 3574,
      "ಂತ": 3575,
      "ವಾ": 3576,
      "ರೆ": 3577,
      "ಕಾರ": 3578,
      "ಿಯ": 3579,
      "ಕೊ": 3580,
      "ವು": 3581,
      "ಕಾ": 3582,
      "ತ್ತು": 3583,
      "ದಿ": 3584,
      "ನೆ": 3585,
      "ದಲ್ಲಿ": 3586,
      "ಂಡ": 3587,
      "ಕ್ಷ": 3588,
      "ಸಿ": 3589,
      "ಟ್ಟ": 3590,
      "ಸಂ": 3591,
      "ಗಳು": 3592,
      "ಕು": 3593,
      "ಅವ": 3594,
      "ಲು": 3595,
      "ಮು": 3596,
      "ಷ್": 3597,
      "ಮ್": 3598,
      "ಲಿ": 3599,
      "ಾರೆ": 3600,
      "ದೇ": 3601,
      "ಯಾ": 3602,
      "ನೀ": 3603,
      "ಸಾ": 3604,
      "ಚಿ": 3605,
      "ಮಾಡ": 3606,
      "ಿಸಿ": 3607,
      "ಕ್ಕೆ": 3608,
      "ತ್ರ": 3609,
      "ಂಗ": 3610,
      "ಮತ್ತು": 3611,
      "ಿಗೆ": 3612,
      "ದೆ": 3613,
      "ಹಿ": 3614,
      "ಂಬ": 3615,
      "ಪ್": 3616,
      "ಬೇ": 3617,
      "ರುವ": 3618,
      "ಮ್ಮ": 3619,
      "ಡೆ": 3620,
      "ತೆ": 3621,
      "ಿದ್ದಾರೆ": 3622,
      "ಷ್ಟ": 3623,
      "ತು": 3624,
      "ಚ್": 3625,
      "ಾರ್": 3626,
      "ನು": 3627,
      "ಬಿ": 3628,
      "ಳ್": 3629,
      "ವೆ": 3630,
      "ಳಿ": 3631,
      "ಎಂದು": 3632,
      "ಗಳನ್ನು": 3633,
      "ಕಿ": 3634,
      "ಜಿ": 3635,
      "ಾಯ": 3636,
      "ಸು": 3637,
      "್ಯಾ": 3638,
      "ಲೆ": 3639,
      "ಬೆ": 3640,
      "ಹೆ": 3641,
      "ಟಿ": 3642,
      "ವನ್ನು": 3643,
      "ಹೊ": 3644,
      "ಡ್": 3645,
      "ಪಾ": 3646,
      "ಸ್ಥ": 3647,
      "ವಾಗಿ": 3648,
      "ಹು": 3649,
      "ಮಿ": 3650,
      "ಶ್": 3651,
      "ಕ್ರ": 3652,
      "ಾಗಿದೆ": 3653,
      "ಕರ": 3654,
      "ಾನ": 3655,
      "ದ್ದ": 3656,
      "ಳ್ಳ": 3657,
      "ಲಾ": 3658,
      "ುವು": 3659,
      "ವೇ": 3660,
      "ಗಿ": 3661,
      "ಕ್ಕ": 3662,
      "ಹಾ": 3663,
      "ಹೇ": 3664,
      "ರಾಜ": 3665,
      "ಬ್": 3666,
      "ಮೂ": 3667,
      "ಿಸಿದ": 3668,
      "ದ್": 3669,
      "ವರ": 3670,
      "ತಾ": 3671,
      "..": 3672,
      "ಧಿ": 3673,
      "ಪು": 3674,
      "ಗೊ": 3675,
      "ರೂ": 3676,
      "ಪಿ": 3677,
      "ನಲ್ಲಿ": 3678,
      "ಗ್": 3679,
      "ಗು": 3680,
      "ಮೇ": 3681,
      "ಹಾಗ": 3682,
      "ಡು": 3683,
      "ರಿಗೆ": 3684,
      "ಚ್ಚ": 3685,
      "ತಿಯ": 3686,
      "ರೋ": 3687,
      "ಶಿ": 3688,
      "ನೀಡ": 3689,
      "ಕೇ": 3690,
      "ವರ್": 3691,
      "ಜನ": 3692,
      "ಂತೆ": 3693,
      "ಳೆ": 3694,
      "ಧ್ಯ": 3695,
      "ನೇ": 3696,
      "ಕೋ": 3697,
      "ೆಯಲ್ಲಿ": 3698,
      "ಣೆ": 3699,
      "ಂದಿ": 3700,
      "ಯೋ": 3701,
      "ುತ್ತದೆ": 3702,
      "ನಿರ್": 3703,
      "ತ್ಯ": 3704,
      "ಗ್ರ": 3705,
      "ಿದ್ದು": 3706,
      "ದಾ": 3707,
      "ಗಳಲ್ಲಿ": 3708,
      "ಿಂದ": 3709,
      "ಕೊಂಡ": 3710,
      "ಸೇ": 3711,
      "ಶಾ": 3712,
      "ತರ": 3713,
      "ಾರಿ": 3714,
      "ದೇಶ": 3715,
      "ಲೇ": 3716,
      "ಆದ": 3717,
      "ಅವರ": 3718,
      "ಹೋ": 3719,
      "ಜೆ": 3720,
      "ಬ್ಬ": 3721,
      "ಹಾಗೂ": 3722,
      "ಣ್": 3723,
      "ಅವರು": 3724,
      "ಮೆ": 3725,
      "ಇದ": 3726,
      "ಮುಖ": 3727,
      "ಮನ": 3728,
      "ಬಹು": 3729,
      "ಸ್‌": 3730,
      "ನಡೆ": 3731,
      "ಸರ್": 3732,
      "ಪರಿ": 3733,
      "ಹೇಳ": 3734,
      "ಜ್": 3735,
      "ವಾಗ": 3736,
      "ಮೊ": 3737,
      "ಸೆ": 3738,
      "ಕೊಳ್ಳ": 3739,
      "ಕರ್": 3740,
      "ಬೇಕು": 3741,
      "ಡೆಯ": 3742,
      "ವ್ಯ": 3743,
      "ಿಸುವ": 3744,
      "ರೀ": 3745,
      "ಂದ್ರ": 3746,
      "ಸಮ": 3747,
      "ಣಿ": 3748,
      "ಪ್ಪ": 3749,
      "ಂಗ್": 3750,
      "ಬಾ": 3751,
      "ರಿಂದ": 3752,
      "ನೋ": 3753,
      "ೂರು": 3754,
      "ರಿಯ": 3755,
      "ೀಯ": 3756,
      "ಗಳಿಗೆ": 3757,
      "ಕೆಲ": 3758,
      "ಿಸಲ": 3759,
      "ಕಾರ್ಯ": 3760,
      "ನ್‌": 3761,
      "ದಿಂದ": 3762,
      "ಕಾರಿ": 3763,
      "ಶ್ರ": 3764,
      "ಭಾ": 3765,
      "ಭಾರ": 3766,
      "ಮಾಡಿ": 3767,
      "ಎಂಬ": 3768,
      "ವರು": 3769,
      "ವಾರ": 3770,
      "ಿಸುತ್ತ": 3771,
      "ಗ್ಗೆ": 3772,
      "ಂಗಳ": 3773,
      "ಮೂಲ": 3774,
      "ಲ್ಲಾ": 3775,
      "ವಾದ": 3776,
      "ೊಂದ": 3777,
      "ುವುದು": 3778,
      "ಕೂ": 3779,
      "ಅಭ": 3780,
      "ಚಿತ್ರ": 3781,
      "ಪೂ": 3782,
      "20": 3783,
      "ೆಯನ್ನು": 3784,
      "ಅದ": 3785,
      "ಒಂದು": 3786,
      "ಂಟ": 3787,
      "ಹೆಚ್ಚ": 3788,
      "ಂತರ": 3789,
      "ಿದ್ದರು": 3790,
      "ಗಾ": 3791,
      "ಆಗ": 3792,
      "ಿಸಲು": 3793,
      "ಜಾ": 3794,
      "ದಿನ": 3795,
      "ಣ್ಣ": 3796,
      "ಕೃ": 3797,
      "ಳು": 3798,
      "ಸರ": 3799,
      "ಿದರು": 3800,
      "ಮಾರ": 3801,
      "ಲೀ": 3802,
      "ಪ್ರತಿ": 3803,
      "ಆದರೆ": 3804,
      "ರುತ್ತ": 3805,
      "ತಿಳ": 3806,
      "ಸೂ": 3807,
      "ಬಗ್ಗೆ": 3808,
      "ದ್ಯ": 3809,
      "ದ್ಧ": 3810,
      "ತ್ರಿ": 3811,
      "ಂಧ": 3812,
      "ವಿದ": 3813,
      "ಗೂ": 3814,
      "ಷ್ಟು": 3815,
      "ಮಾನ": 3816,
      "ಡಾ": 3817,
      "ಗರ": 3818,
      "ಮೀ": 3819,
      "ಭಾರತ": 3820,
      "ಸ್ಪ": 3821,
      "ಸಹ": 3822,
      "ಎಂ": 3823,
      "ರಾಜ್ಯ": 3824,
      "ಕ್ತ": 3825,
      "ವರ್ಷ": 3826,
      "ಮಾರ್": 3827,
      "ಸ್ಟ": 3828,
      "ಾದ": 3829,
      "ಕ್ರಮ": 3830,
      "ರ್‌": 3831,
      "ಂಡಿ": 3832,
      "ುತ್ತಿ": 3833,
      "ಯು": 3834,
      "ಪಡ": 3835,
      "ರುವು": 3836,
      "ಟ್ಟು": 3837,
      "ಟ್‌": 3838,
      "ಂಭ": 3839,
      "ಬಹುದು": 3840,
      "ವೈ": 3841,
      "ಬಂದ": 3842,
      "ಿಸಿದರು": 3843,
      "ಬಳ": 3844,
      "ನಿಮ್ಮ": 3845,
      "ಚಾರ": 3846,
      "ಎಸ್": 3847,
      "ಅನು": 3848,
      "ಮೇಲೆ": 3849,
      "ಗ್ರಾ": 3850,
      "ನಮ್ಮ": 3851,
      "ನಿಯ": 3852,
      "ಸೋ": 3853,
      "ಟ್ಟಿ": 3854,
      "ರೈ": 3855,
      "ಸ್ಯ": 3856,
      "ಡಿಯ": 3857,
      "ಹಾರ": 3858,
      "ಎಂದ": 3859,
      "್ರೆ": 3860,
      "ಸ್ತ": 3861,
      "ರೇ": 3862,
      "ತೆಗೆ": 3863,
      "ಅಧಿ": 3864,
      "ಕೈ": 3865,
      "ವೀ": 3866,
      "ನ್ಯ": 3867,
      "ಲಾಗ": 3868,
      "ರ್ಥ": 3869,
      "ಾಯಿ": 3870,
      "ಇದು": 3871,
      "ಅಭಿ": 3872,
      "ಿಸಿದ್ದಾರೆ": 3873,
      "ಫ್": 3874,
      "ಉತ್ತ": 3875,
      "ವಿಧ": 3876,
      "ರಲ್ಲಿ": 3877,
      "ೊಂದಿಗೆ": 3878,
      "ವೃ": 3879,
      "ಮೂಲಕ": 3880,
      "ಸರ್ಕಾರ": 3881,
      "ಲ್‌": 3882,
      "ಭಾಗ": 3883,
      "ಜೀ": 3884,
      "ಶೇ": 3885,
      "ತ್ತಿ": 3886,
      "ಮೋ": 3887,
      "ಮೊದ": 3888,
      "ತಮ್ಮ": 3889,
      "ಎಲ್ಲ": 3890,
      "ಆರೋ": 3891,
      "ಿಯಲ್ಲಿ": 3892,
      "ಣಾ": 3893,
      "ಸದ": 3894,
      "ಲೋ": 3895,
      "ಶ್ರೀ": 3896,
      "ಮುಖ್ಯ": 3897,
      "ವನ": 3898,
      "ಕನ್ನ": 3899,
      "ಕರು": 3900,
      "ಂಪ": 3901,
      "ಲಯ": 3902,
      "ಟೆ": 3903,
      "ಳೆಯ": 3904,
      "ನೀವು": 3905,
      "ಇಲ್ಲ": 3906,
      "ಟಕ": 3907,
      "ಬಂಧ": 3908,
      "ವಹ": 3909,
      "ಈಗ": 3910,
      "ಕರಣ": 3911,
      "ನಡೆಸ": 3912,
      "ಚು": 3913,
      "ಗಾಗಿ": 3914,
      "ಕಾರಣ": 3915,
      "ಂದೆ": 3916,
      "ಗೋ": 3917,
      "ತೀ": 3918,
      "ದೊ": 3919,
      "ನಾಯ": 3920,
      "ಹೊರ": 3921,
      "ಎರ": 3922,
      "ಪರ": 3923,
      "ಪೊ": 3924,
      "ಮಾತ": 3925,
      "ನಗರ": 3926,
      "ನನ್ನ": 3927,
      "ನಿಂದ": 3928,
      "ಧ್ಯಕ್ಷ": 3929,
      "ಲೂ": 3930,
      "ವಾಗಿದೆ": 3931,
      "ಮಂ": 3932,
      "ುವುದ": 3933,
      "ಚೆ": 3934,
      "ಕೆಯ": 3935,
      "ಬೆಂಗಳ": 3936,
      "ಹೊಸ": 3937,
      "ತನ": 3938,
      "ಹೀ": 3939,
      "ನ್ನೂ": 3940,
      "ಪೂರ್": 3941,
      "ದರ್": 3942,
      "ಅಥ": 3943,
      "ನಂತರ": 3944,
      "ರಿದ": 3945,
      "ಮತ್ತ": 3946,
      "00": 3947,
      "ಕೇಂದ್ರ": 3948,
      "...": 3949,
      "ವಿಶ್": 3950,
      "ುತ್ತಿದೆ": 3951,
      "ನಾನು": 3952,
      "ಚಾ": 3953,
      "ಗೊಳ": 3954,
      "ಹಲ": 3955,
      "ತ್ವ": 3956,
      "ಜ್ಞ": 3957,
      "ಸ್ವ": 3958,
      "ಅಂ": 3959,
      "ಯಾವು": 3960,
      "ಯ್": 3961,
      "ಸಚಿ": 3962,
      "ಪಕ್ಷ": 3963,
      "ಲಕ್ಷ": 3964,
      "ಡಿದ": 3965,
      "ಅಥವಾ": 3966,
      "ಯಿ": 3967,
      "ನ್ಯಾ": 3968,
      "ಖಾ": 3969,
      "ಕನ್ನಡ": 3970,
      "ಟ್ರ": 3971,
      "ಟು": 3972,
      "ಕೊಂಡು": 3973,
      "ಬು": 3974,
      "ಜು": 3975,
      "ಮೈ": 3976,
      "ಪಡೆ": 3977,
      "ಡುವ": 3978,
      "ಿಸಿದೆ": 3979,
      "ಮಾತನಾ": 3980,
      "ನೆಯ": 3981,
      "ಪ್ರಾ": 3982,
      "ವ್": 3983,
      "ೊಂದು": 3984,
      "ೂರ": 3985,
      "ಲಾಗಿದೆ": 3986,
      "ಕೆಲಸ": 3987,
      "ಶು": 3988,
      "ಷ್ಟ್ರ": 3989,
      "ಬಿಜೆ": 3990,
      "ಗಳಿಂದ": 3991,
      "ಜೊ": 3992,
      "ಕ್ತಿ": 3993,
      "ಪೊಲೀ": 3994,
      "ಉಪ": 3995,
      "ರೆಯ": 3996,
      "ಚ್ಚಿ": 3997,
      "ಸ್ವಾ": 3998,
      "ನಡೆಯ": 3999,
      "an": 4000,
      "ವರೆ": 4001,
      "ಡ್ಡ": 4002,
      "ಾರ್ಥ": 4003,
      "ಯಾರ": 4004,
      "ಮದ": 4005,
      "ನಾವು": 4006,
      "ಲಿದೆ": 4007,
      "ಗೌ": 4008,
      "ಪಟ್ಟ": 4009,
      "ಜಿಲ್ಲ": 4010,
      "ಕಾರ್": 4011,
      "ವಿಷ": 4012,
      "ಸಾಧ್ಯ": 4013,
      "ಸಭ": 4014,
      "ನಾಟಕ": 4015,
      "ಬ್ರ": 4016,
      "ಹೆಚ್ಚು": 4017,
      "ಮಕ್ಕ": 4018,
      "ಿದ್ದೇ": 4019,
      "ಕಾಂಗ": 4020,
      "ಪದ": 4021,
      "ಬದ": 4022,
      "ಅಂತ": 4023,
      "ಮಾಣ": 4024,
      "ಪಂ": 4025,
      "ನಾವ": 4026,
      "ಳ್ಳಿ": 4027,
      "ವಿದ್ಯ": 4028,
      "ಬೀ": 4029,
      "ಅಧ್ಯಕ್ಷ": 4030,
      "ತನ್ನ": 4031,
      "ಸ್ಥಿ": 4032,
      "ಸ್ಥಾನ": 4033,
      "ಗಳಿ": 4034,
      "ವಿರು": 4035,
      "ಕ್ಷೇ": 4036,
      "ಕೂಡ": 4037,
      "ಜಿಲ್ಲಾ": 4038,
      "ವ್ಯಾ": 4039,
      "ಯೋಜ": 4040,
      "ಪುರ": 4041,
      "ಸಂದ": 4042,
      "ಗೊಂಡ": 4043,
      "ದ್ರ": 4044,
      "ಕಾಂಗ್ರೆ": 4045,
      "ಕ್ಕಿ": 4046,
      "ಕ್‌": 4047,
      "ಕಾಲ": 4048,
      "19": 4049,
      "ಂತ್ರ": 4050,
      "ದಲ್ಲ": 4051,
      "ಆರ": 4052,
      "ಂಡ್": 4053,
      "ದಿಲ್ಲ": 4054,
      "ಮನೆ": 4055,
      "ಬಳಿ": 4056,
      "ಹಣ": 4057,
      "ಚುನಾವ": 4058,
      "ಲೈ": 4059,
      "ಕಳೆ": 4060,
      "ಧಾ": 4061,
      "ಯಾವುದೇ": 4062,
      "ಿಸಲಾಗಿದೆ": 4063,
      "ಸಾಮಾ": 4064,
      "ಸ್ಥಳ": 4065,
      "ಸಿದ": 4066,
      "ಿಯನ್ನು": 4067,
      "ಹೋಗ": 4068,
      "ಬ್ಯಾ": 4069,
      "ಇಲ್ಲಿ": 4070,
      "ಫೋ": 4071,
      "ಶೀ": 4072,
      "ಕಟ್ಟ": 4073,
      "ಷ್ಠ": 4074,
      "ಧಾರ": 4075,
      "ನೂ": 4076,
      "ರಣ": 4077,
      "ವಿರುದ್ಧ": 4078,
      "ಮಾರು": 4079,
      "ಇದ್ದ": 4080,
      "ಶಿಕ್ಷ": 4081,
      "ಕ್ಕೂ": 4082,
      "ಟನೆ": 4083,
      "ಮಾತ್ರ": 4084,
      "ೋಷ": 4085,
      "ಕಲ್": 4086,
      "ಬೆಳ": 4087,
      "ಹ್": 4088,
      "ಗ್ಯ": 4089,
      "ಂದಿನ": 4090,
      "ಪರ್": 4091,
      "ಹಾಕ": 4092,
      "ೇಶ": 4093,
      "ಮಾಹಿ": 4094,
      "ತಂಡ": 4095,
      "ಆರ್": 4096,
      "ಸ್ಥೆ": 4097,
      "ಕರ್ನಾಟಕ": 4098,
      "ಸವ": 4099,
      "ಟರ್": 4100,
      "ಯ್ಯ": 4101,
      "ಸರು": 4102,
      "ಮಾಡುವ": 4103,
      "ಕ್ಷೇತ್ರ": 4104,
      "ಕಾರ್ಯಕ್ರಮ": 4105,
      "ಡುಗ": 4106,
      "ತೆಯ": 4107,
      "ಬೆಂಗಳೂರು": 4108,
      "ರಾಷ್ಟ್ರ": 4109,
      "ಲಭ": 4110,
      "ರೀಕ್ಷ": 4111,
      "ಷಿ": 4112,
      "ಮಗೆ": 4113,
      "ಮಾಡಿದ": 4114,
      "ುತ್ತಿದ್ದ": 4115,
      "ನಡೆದ": 4116,
      "ಲಿಯ": 4117,
      "ಅರ್": 4118,
      "ಯೂ": 4119,
      "ರಿನ": 4120,
      "ವಿಶ್ವ": 4121,
      "ಪ್ರದೇಶ": 4122,
      "ುತ್ತಾರೆ": 4123,
      "ದ್ದಿ": 4124,
      "ಳಿದ": 4125,
      "ವಾಹ": 4126,
      "ರಾದ": 4127,
      "ರಾಮ": 4128,
      "ಇದೆ": 4129,
      "ಅನ್ನು": 4130,
      "10": 4131,
      "ವಿಚಾರ": 4132,
      "ಂಕ": 4133,
      "ತೋ": 4134,
      "ಎಸ್‌": 4135,
      "ರುತ್ತದೆ": 4136,
      "ಬಿಜೆಪಿ": 4137,
      "ಪಡೆಯ": 4138,
      "ಕುರಿ": 4139,
      "ಕ್ರಿಯ": 4140,
      "ಆರಂಭ": 4141,
      "ಅಲ್ಲ": 4142,
      "ಕಾಣ": 4143,
      "ಮುಂದ": 4144,
      "ರುವುದು": 4145,
      "ಅಧಿಕಾರಿ": 4146,
      "ಟಾ": 4147,
      "ನ್ನೆ": 4148,
      "ರೂಪ": 4149,
      "ರಕ್ಷ": 4150,
      "ಬರ": 4151,
      "ವಿನ": 4152,
      "ಕಾಶ": 4153,
      "ಎನ್ನು": 4154,
      "ೆಗೆ": 4155,
      "ಬೇಕ": 4156,
      "ಸಂಘ": 4157,
      "ಸಿನಿ": 4158,
      "ಅಪ": 4159,
      "ಸಮಾ": 4160,
      "ಸಂಬಂಧ": 4161,
      "ದ್ದು": 4162,
      "ಶಸ್": 4163,
      "ಪ್ರಕರಣ": 4164,
      "ಂತಹ": 4165,
      "ವ್ಯವ": 4166,
      "ಮೊದಲ": 4167,
      "ಪಾದ": 4168,
      "ಒಂದ": 4169,
      "ಿಸುತ್ತದೆ": 4170,
      "ಹೊಂದ": 4171,
      "ಬೈ": 4172,
      "ಲಿಲ್ಲ": 4173,
      "ಗಾರ": 4174,
      "ಕೊಡ": 4175,
      "ದರ್ಶ": 4176,
      "ಚರ್": 4177,
      "ಂದರೆ": 4178,
      "ಇಲಾ": 4179,
      "ರ್ಭ": 4180,
      "ಅದು": 4181,
      "ದಾಖ": 4182,
      "ಪೂರ್ಣ": 4183,
      "ಬಾರ": 4184,
      "ತುಂಬ": 4185,
      "ಎಂಬು": 4186,
      "ಭೂ": 4187,
      "ಮಹಿ": 4188,
      "ಟೀ": 4189,
      "ಮತ": 4190,
      "ಶಾಸ": 4191,
      "ುತ್ತಿರುವ": 4192,
      "ಜಯ": 4193,
      "ಸೀ": 4194,
      "ನಾಗ": 4195,
      "ಕಡಿ": 4196,
      "ಇಲಾಖ": 4197,
      "ಉತ್": 4198,
      "ಕಂಡ": 4199,
      "ಕುಮಾರ್": 4200,
      "ಕಂಪ": 4201,
      "ಉತ್ತಮ": 4202,
      "ವಾಸ": 4203,
      "ಒಳ": 4204,
      "ತ್ಮ": 4205,
      "ಿಸಲಾಗ": 4206,
      "ಚರ": 4207,
      "ವೂ": 4208,
      "ಎರಡು": 4209,
      "ರನ್ನು": 4210,
      "ರಸ್": 4211,
      "ಸೌ": 4212,
      "ಿಸಿಕೊಳ್ಳ": 4213,
      "ಲ್ಲೂ": 4214,
      "ದೀ": 4215,
      "ಗುರು": 4216,
      "ಸಚಿವ": 4217,
      "ರಂದು": 4218,
      "ಹರ": 4219,
      "ಸ್ಟ್": 4220,
      "ಅಗ": 4221,
      "ಸಮಸ್ಯ": 4222,
      "ಭವ": 4223,
      "ಂತಿ": 4224,
      "ಯೋಗ": 4225,
      "ಿಸಿದ್ದ": 4226,
      "ಟೋ": 4227,
      "ಶಿವ": 4228,
      "ವಿಧಾನ": 4229,
      "ಹೇಳಿ": 4230,
      "ದಾರ": 4231,
      "ಸಮಯ": 4232,
      "ಆರೋಗ್ಯ": 4233,
      "ಸೈ": 4234,
      "ಗೊಳ್ಳ": 4235,
      "ಭಾವ": 4236,
      "ಕ್ಕಾಗಿ": 4237,
      "ಯುವ": 4238,
      "ಂಟ್": 4239,
      "ೆಯೇ": 4240,
      "ಪೋ": 4241,
      "ಎಲ್ಲಾ": 4242,
      "ಕ್ಯಾ": 4243,
      "ರುವುದ": 4244,
      "ಮಾಹಿತಿ": 4245,
      "ರವ": 4246,
      "ಮಟ್ಟ": 4247,
      "ಗ್ರಹ": 4248,
      "ಮಕ್ಕಳ": 4249,
      "ಿದ್ದರೆ": 4250,
      "ಚ್ಚಿನ": 4251,
      "ಾಟ": 4252,
      "ೊಬ್ಬ": 4253,
      "ಸಾಧ": 4254,
      "ರಂಗ": 4255,
      "ಶೇಷ": 4256,
      "ವಿಷಯ": 4257,
      "ಕಾಂಗ್ರೆಸ್": 4258,
      "ಮಂತ್ರಿ": 4259,
      "ಹೇಳಿದರು": 4260,
      "ನಿರ್ದೇಶ": 4261,
      "ನೀಡಿ": 4262,
      "ಾರ್ಥಿ": 4263,
      "ಸ್ತು": 4264,
      "ಡ್‌": 4265,
      "ಕೋಟಿ": 4266,
      "ಕರೆ": 4267,
      "ಮಾಡಲು": 4268,
      "ಕೆಲವು": 4269,
      "ಅವರಿಗೆ": 4270,
      "ಗೇ": 4271,
      "ನಟ": 4272,
      "ತ್ನ": 4273,
      "ವಿರ": 4274,
      "ಯೇ": 4275,
      "ಜೀವನ": 4276,
      "ತೊ": 4277,
      "ಆಗಿ": 4278,
      "ುವುದಿಲ್ಲ": 4279,
      "ಸಂಖ": 4280,
      "ಸೂಚ": 4281,
      "ಗಣ": 4282,
      "ದೊಡ್ಡ": 4283,
      "ಎಂದರು": 4284,
      "ಪ್ರೀ": 4285,
      "ಶೋ": 4286,
      "ಅದರ": 4287,
      "ವರಿಗೆ": 4288,
      "ಿಸಬೇಕು": 4289,
      "ಮರ": 4290,
      "ಸೇರಿದ": 4291,
      "ತಿಯನ್ನು": 4292,
      "ನನ": 4293,
      "ಭೇ": 4294,
      "ಕಾದ": 4295,
      "ಇನ್ನ": 4296,
      "ಫಿ": 4297,
      "ವೇಶ": 4298,
      "ವರಿ": 4299,
      "ವಿಶೇಷ": 4300,
      "ವಿದ್ಯಾರ್ಥಿ": 4301,
      "ಧರ": 4302,
      "ಸದಸ್ಯ": 4303,
      "ಉತ್ತರ": 4304,
      "ಕವಾಗಿ": 4305,
      "ಸಿದ್": 4306,
      "ದರ": 4307,
      "ಸುದ್ದಿ": 4308,
      "ವರೆಗೆ": 4309,
      "ಹೆಚ್ಚಿನ": 4310,
      "ಸಲ್ಲ": 4311,
      "ಯೋಜನೆ": 4312,
      "ಜೋ": 4313,
      "ಆಯ್": 4314,
      "ದ್ಧಿ": 4315,
      "ಕೀಯ": 4316,
      "ra": 4317,
      "ಬಿಡುಗ": 4318,
      "ಸಂದರ್ಭ": 4319,
      "ಗ್ರಾಮ": 4320,
      "ಕಳೆದ": 4321,
      "ವಿಲ್ಲ": 4322,
      "ಕೊರ": 4323,
      "ಭಾಷ": 4324,
      "ಚೇ": 4325,
      "ಸಿನಿಮಾ": 4326,
      "ಷ್ಣ": 4327,
      "ನಿರ್ವಹ": 4328,
      "ರ್ಥಿ": 4329,
      "ೆಯಿಂದ": 4330,
      "ಮಂಗಳ": 4331,
      "ಸರಿ": 4332,
      "ಅಗತ್ಯ": 4333,
      "ಪ್ರಶ್": 4334,
      "ಅಭಿವೃ": 4335,
      "ಳಿತ": 4336,
      "ನೋಡ": 4337,
      "ಧಿಕಾರಿ": 4338,
      "ಳಿಯ": 4339,
      "ನಾಯಕ": 4340,
      "ಇಂದು": 4341,
      "ವೇಳೆ": 4342,
      "ವಲ": 4343,
      "ಕ್ಷಿ": 4344,
      "ನಿಕ": 4345,
      "15": 4346,
      "ಜಾಗ": 4347,
      "ಾರಂಭ": 4348,
      "ಅತ್ಯ": 4349,
      "ಲ್ಲೇ": 4350,
      "ುತ್ತಿದ್ದಾರೆ": 4351,
      "ಾನೆ": 4352,
      "ಗಮನ": 4353,
      "ಾಗಿತ್ತು": 4354,
      "ಸಂಗ": 4355,
      "ಮಂಡ": 4356,
      "ತೆಗೆದು": 4357,
      "ಅವರನ್ನು": 4358,
      "ಮಹಾ": 4359,
      "ಸಹಾಯ": 4360,
      "ಇರ": 4361,
      "ದೇವ": 4362,
      "ಗೌಡ": 4363,
      "ತವಾಗಿ": 4364,
      "ಾಯಿತು": 4365,
      "ಲಿನ": 4366,
      "ಕೀ": 4367,
      "ಅಲ್ಲಿ": 4368,
      "ಅನ": 4369,
      "ಅದನ್ನು": 4370,
      "ಟುಂಬ": 4371,
      "ಬಳಿಕ": 4372,
      "ನಿಗೆ": 4373,
      "ಮಹ": 4374,
      "ಸಂಖ್ಯ": 4375,
      "ತಿಯಲ್ಲಿ": 4376,
      "ಸಾರ್": 4377,
      "ಕುರಿತು": 4378,
      "ಜ್ಞಾನ": 4379,
      "ಯತ್ನ": 4380,
      "ಪೆ": 4381,
      "ಹೊಂದಿ": 4382,
      "ಯಾವ": 4383,
      "ani": 4384,
      "ಲ್ಯ": 4385,
      "್ಯೂ": 4386,
      "ದಯ": 4387,
      "ಅವಕಾಶ": 4388,
      "ನೀರು": 4389,
      "ಮತ್ತೆ": 4390,
      "ನ್ಸ್": 4391,
      "ಪತ್ರ": 4392,
      "ಸಲ": 4393,
      "ತ್ರೆ": 4394,
      "av": 4395,
      "ನಾಲ್": 4396,
      "ಸಿಗ": 4397,
      "ತರು": 4398,
      "ಹೈ": 4399,
      "ಿಸುವುದು": 4400,
      "ಉದ್ಯ": 4401,
      "ಕುಟುಂಬ": 4402,
      "ದಾನ": 4403,
      "ಗಿನ": 4404,
      "ರ್ಯ": 4405,
      "ೃಷ್ಟ": 4406,
      "ಎದು": 4407,
      "ಕ್ರಿ": 4408,
      "ವಣ": 4409,
      "ಮುಖ್ಯಮಂತ್ರಿ": 4410,
      "ಕಲ": 4411,
      "ಕಿನ": 4412,
      "ಮಗ": 4413,
      "ಮಂದಿ": 4414,
      "ಹೇಗೆ": 4415,
      "ಬೆಳೆ": 4416,
      "ಸಮಸ್ಯೆ": 4417,
      "ಎರಡ": 4418,
      "ಸೇರಿದಂತೆ": 4419,
      "ಿಸಿಕೊಂಡ": 4420,
      "ಾರು": 4421,
      "ಸ್ವಾಮಿ": 4422,
      "ುತ್ತೇ": 4423,
      "ಧಾನ": 4424,
      "ಸಿದ್ದ": 4425,
      "ವಿವಿಧ": 4426,
      "in": 4427,
      "ಕ್ಸ್": 4428,
      "ಲೆಯಲ್ಲಿ": 4429,
      "ಆಸ್ಪ": 4430,
      "ಾಪ": 4431,
      "ರಾಗ": 4432,
      "ಸಭೆ": 4433,
      "201": 4434,
      "ಗುಣ": 4435,
      "ಪರೀಕ್ಷ": 4436,
      "ವಜ": 4437,
      "ವಾರ್": 4438,
      "ಸಾವಿರ": 4439,
      "ಮೋದಿ": 4440,
      "ದೂರ": 4441,
      "ಸಿದ್ಧ": 4442,
      "ಬಾರಿ": 4443,
      "ಮೂರು": 4444,
      "ಪ್ರಮುಖ": 4445,
      "ಶೆ": 4446,
      "ಹಿಂದೆ": 4447,
      "ವಿಯ": 4448,
      "ಕನ": 4449,
      "ಭಿ": 4450,
      "ಸಾಮಾನ್ಯ": 4451,
      "ಪೇ": 4452,
      "ಪಂಚ": 4453,
      "avani": 4454,
      "ಮುಂದೆ": 4455,
      "ಇರುವ": 4456,
      "ಕಾಯ": 4457,
      "ನದ": 4458,
      "ಸಂಸ್ಥೆ": 4459,
      "ಷ್ಟೇ": 4460,
      "ಬಳಸ": 4461,
      "ಪ್ರಮಾಣ": 4462,
      "ಕೋರ್": 4463,
      "ಮಾಜಿ": 4464,
      "ಇದೇ": 4465,
      "ಲ್ಪ": 4466,
      "ರಾಜ್": 4467,
      "ಮಿಕ": 4468,
      "ಆಡ": 4469,
      "ಕೊಟ್ಟ": 4470,
      "ಧರ್": 4471,
      "ಜೊತೆ": 4472,
      "ಅಂಗ": 4473,
      "ಹಲವು": 4474,
      "ವಾಣಿ": 4475,
      "ಡಿಕೆ": 4476,
      "ನೋಡಿ": 4477,
      "ಲಭ್ಯ": 4478,
      "ಗಂಟ": 4479,
      "ಣೆಗೆ": 4480,
      "ಇನ್ನು": 4481,
      "ಯೋಜನ": 4482,
      "್ರಾ": 4483,
      "ಿಯಾಗಿ": 4484,
      "ಣದಲ್ಲಿ": 4485,
      "ಮಧ್ಯ": 4486,
      "da": 4487,
      "ಮಾತು": 4488,
      "ಮಾರ್ಗ": 4489,
      "ನಾಥ": 4490,
      "ಯಾದ": 4491,
      "ಪ್ರೇ": 4492,
      "ರಾಷ್ಟ್ರೀಯ": 4493,
      "ಪಾತ್ರ": 4494,
      "ಬೇಕೆ": 4495,
      "ನಿರ್ಮಾಣ": 4496,
      "ಣ್ಣು": 4497,
      "ಿಯಾಗ": 4498,
      "ಮಾತನಾಡ": 4499,
      "ಮ್ಮೆ": 4500,
      "ಸಂತ": 4501,
      "ಂಚ": 4502,
      "ತಿಳಿದ": 4503,
      "ಹಳ": 4504,
      "ಹೂ": 4505,
      "ಕಡಿಮೆ": 4506,
      "ವ್ಯಕ್ತ": 4507,
      "ಒತ್ತ": 4508,
      "ಾಗಲೇ": 4509,
      "ರಳ": 4510,
      "ಶಿಕ್ಷಣ": 4511,
      "ಆಟ": 4512,
      "ಮಾದ": 4513,
      "ಮೃ": 4514,
      "ಇದರ": 4515,
      "12": 4516,
      "ಕಂಡು": 4517,
      "ನಂದ": 4518,
      "ಪ್‌": 4519,
      "ನಡುವ": 4520,
      "om": 4521,
      "ಪಾಲ": 4522,
      "ಂಚಿ": 4523,
      "ಎಚ್": 4524,
      "ಕಥ": 4525,
      "ಹೇಳಿದ್ದಾರೆ": 4526,
      "ಪ್ರತಿಭ": 4527,
      "ಕೊಂಡಿ": 4528,
      "ವಾಹನ": 4529,
      "ಂಶ": 4530,
      "ತಂತ್ರ": 4531,
      "ಇದನ್ನು": 4532,
      "ಆರೋಪ": 4533,
      "ಗ್ಗ": 4534,
      "ಿಸಿದ್ದರು": 4535,
      "ನನಗೆ": 4536,
      "ಸುಮಾರು": 4537,
      "ಸಾಗ": 4538,
      "ಸಾರ": 4539,
      "ತೇ": 4540,
      "ಂಥ": 4541,
      "ನಿಮಗೆ": 4542,
      "ಲೆಯ": 4543,
      "ಉದ್ದ": 4544,
      "30": 4545,
      "ಅನೇ": 4546,
      "ಪಂದ": 4547,
      "ತ್‌": 4548,
      "ಮ್ಯಾ": 4549,
      "ವಯ": 4550,
      "ಕೃಷ್ಣ": 4551,
      "ಪ್ಪು": 4552,
      "ಭಾರತೀಯ": 4553,
      "ಇತರ": 4554,
      "ವಿದೆ": 4555,
      "ಬೋ": 4556,
      "ಿಸಿರುವ": 4557,
      "ಪರಿಣಾ": 4558,
      "ುವಂತೆ": 4559,
      "ಕೃತಿ": 4560,
      "ಂಧಿ": 4561,
      "ಶ್ವರ": 4562,
      "ಸೇರ": 4563,
      "ಜೊತೆಗೆ": 4564,
      "ಲಿಗೆ": 4565,
      "ಭಾರತದ": 4566,
      "ಭೇಟಿ": 4567,
      "ಡೀ": 4568,
      "ಪಡೆದ": 4569,
      "ಹೋರಾ": 4570,
      "ಪ್ರಧಾ": 4571,
      "ಬಲ": 4572,
      "ನ್ನೇ": 4573,
      "ಜನರು": 4574,
      "ಡೇ": 4575,
      "ಚೀ": 4576,
      "ಿಸುತ್ತಿ": 4577,
      "ಪರಿಣಾಮ": 4578,
      "ಬೇಕಾದ": 4579,
      "ದರ್ಶನ": 4580,
      "ಚಂದ್ರ": 4581,
      "ಕಷ್ಟ": 4582,
      "ರಚ": 4583,
      "ಬಿಡುಗಡೆ": 4584,
      "ನಿವಾರ": 4585,
      "ಕಲಾ": 4586,
      "ಬದು": 4587,
      "ಮುಂದಿನ": 4588,
      "ಕೋವಿ": 4589,
      "ಿದ್ದೇವೆ": 4590,
      "ಕೆಟ್": 4591,
      "ಪ್ರಯತ್ನ": 4592,
      "ವೈದ್ಯ": 4593,
      "ಿದ್ದೇನೆ": 4594,
      "ಸಂದರ್ಭದಲ್ಲಿ": 4595,
      "ಸ್ಪರ್": 4596,
      "ಜನರ": 4597,
      "ಬರುತ್ತ": 4598,
      "ವಿವರ": 4599,
      "ಸಮಾಜ": 4600,
      "ಇಲಾಖೆ": 4601,
      "ತ್ಯಾ": 4602,
      "ರಿಕೆ": 4603,
      "ದನ್ನು": 4604,
      "ಇನ್ನೂ": 4605,
      "ರಸ್ತೆ": 4606,
      "ಬರ್": 4607,
      "ಚಿತ": 4608,
      "ಿಸಬಹುದು": 4609,
      "ಕಾಲೇ": 4610,
      "ಎನ್": 4611,
      "ಜಿಲ್ಲೆಯ": 4612,
      "ಸರಕಾರ": 4613,
      "ಅವು": 4614,
      "ಸಭಾ": 4615,
      "ರಿಕ": 4616,
      "ರಾಜಕೀಯ": 4617,
      "ತಾಲೂ": 4618,
      "ಹಾಕಿ": 4619,
      "ವ್ಯಕ್ತಿ": 4620,
      "ಂಬರ್": 4621,
      "ನವ": 4622,
      "ಘಾ": 4623,
      "ಲೋಕ": 4624,
      "ಒಬ್ಬ": 4625,
      "ದೇಶದ": 4626,
      "ಸಾಹಿ": 4627,
      "ಪೀ": 4628,
      "ಕಟ": 4629,
      "ಪಂದ್ಯ": 4630,
      "ಿಯಾ": 4631,
      "ಸಮಿ": 4632,
      "ಇತ್ತ": 4633,
      "ಸ್ಥಾಪ": 4634,
      "ಹಿರಿಯ": 4635,
      "ಬಯ": 4636,
      "ಸೋಂ": 4637,
      "ಕೇಳ": 4638,
      "ಪಡೆದು": 4639,
      "ಎಲ್": 4640,
      "ಬರೆ": 4641,
      "50": 4642,
      "ಬ್ಯಾಂ": 4643,
      "ಬೆಂಗಳೂ": 4644,
      "ಹಂತ": 4645,
      "ುವೆ": 4646,
      "ಮೌ": 4647,
      "ಾಗುತ್ತದೆ": 4648,
      "ಹಿನ್ನೆ": 4649,
      "ಶೀಲ": 4650,
      "ಸಾಮಾಜಿ": 4651,
      "ಪೊಲೀಸರು": 4652,
      "ಸ್ಥಿತಿ": 4653,
      "ಅಭಿವೃದ್ಧಿ": 4654,
      "ಮಾರಾಟ": 4655,
      "ಅನೇಕ": 4656,
      "ಕೇವಲ": 4657,
      "ಬಿಡ": 4658,
      "ಣೆಯ": 4659,
      "ಜಗ": 4660,
      "್ರಿ": 4661,
      "ನೆರ": 4662,
      "ಂತ್": 4663,
      "ವರ್ಷದ": 4664,
      "ದಗ": 4665,
      "ಕಿತ್": 4666,
      "ಸಾರ್ವಜ": 4667,
      "ಹೀಗೆ": 4668,
      "ಣದ": 4669,
      "ನೆಗೆ": 4670,
      "ಸೇವ": 4671,
      "ಸಮು": 4672,
      "ಕ್ರೀ": 4673,
      "ಅನುಭವ": 4674,
      "ಅಭ್ಯ": 4675,
      "ಶಾಸಕ": 4676,
      "ಸಾಮಾಜಿಕ": 4677,
      "ಅತಿ": 4678,
      "ಮಾಡಿದ್ದಾರೆ": 4679,
      "ಸೇವೆ": 4680,
      "ಕಡೆ": 4681,
      "ಚಿಕಿತ್": 4682,
      "ಇದರಿಂದ": 4683,
      "ಬೇರೆ": 4684,
      "ಎಫ್": 4685,
      "ೀಗ": 4686,
      "ಮಳೆ": 4687,
      "ದಾಯ": 4688,
      "ನೀಡಿದ": 4689,
      "ನಿಜ": 4690,
      "ar": 4691,
      "ಸಿಂಗ್": 4692,
      "ವರದಿ": 4693,
      "ag": 4694,
      "ದಂತೆ": 4695,
      "ಹಿಂದ": 4696,
      "ಸ್ತ್ರ": 4697,
      "ಫೆ": 4698,
      "ಘೋಷ": 4699,
      "ವಿರೋ": 4700,
      "ಪ್ರಧಾನಿ": 4701,
      "ಪರಿಹಾರ": 4702,
      "ಆಹಾರ": 4703,
      "ನಡುವೆ": 4704,
      "ಸುತ್ತ": 4705,
      "ತಿಳಿಸಿದರು": 4706,
      "ಟಿಂಗ್": 4707,
      "ಆಯ್ಕೆ": 4708,
      "ಸ್ತಿ": 4709,
      "ರ್ತಿ": 4710,
      "ಕತೆ": 4711,
      "ಬಳಕೆ": 4712,
      "ಅಧಿಕಾರ": 4713,
      "ಸಂಪರ್": 4714,
      "ಣೆಯಲ್ಲಿ": 4715,
      "ನಗರದ": 4716,
      "ಆರ್‌": 4717,
      "ಈಗಾಗಲೇ": 4718,
      "ಪ್ರಕಾರ": 4719,
      "ಾಗಿರುವ": 4720,
      "ಏನು": 4721,
      "ಬಹಳ": 4722,
      "ಆತ": 4723,
      "ಅರ್ಥ": 4724,
      "ಪೊಲೀಸ್": 4725,
      "ಕುಮಾರ": 4726,
      "ಂಗಾ": 4727,
      "ತೃ": 4728,
      "ಶಾಲೆ": 4729,
      "ಇಬ್ಬ": 4730,
      "ಬೆಂಬ": 4731,
      "ಚಾಲ": 4732,
      "11": 4733,
      "ಕೃಷಿ": 4734,
      "ಪೈ": 4735,
      "ಮೊದಲು": 4736,
      "ಪಕ್ಷದ": 4737,
      "ಶ್ಯ": 4738,
      "ಸಂಪರ್ಕ": 4739,
      "ತಪ್ಪ": 4740,
      "ಸಾಕ": 4741,
      "ಡ್ಡಿ": 4742,
      "ಮುಂದುವ": 4743,
      "ಖರೀ": 4744,
      "ಘಟನೆ": 4745,
      "ಜೀವ": 4746,
      "ಿಯಿಂದ": 4747,
      "ಬದಲ": 4748,
      "ಹೆಸರು": 4749,
      "ಕಾರು": 4750,
      "ಇಂಡಿ": 4751,
      "ಮಹಿಳೆಯ": 4752,
      "ಜ್ಯ": 4753,
      "ಲೇಖ": 4754,
      "ಹೋರಾಟ": 4755,
      "ದಾದ": 4756,
      "ರಿನಲ್ಲಿ": 4757,
      "ಬೆಲೆ": 4758,
      "ುತ್ತವೆ": 4759,
      "ವಿದ್ಯಾ": 4760,
      "ವಿಭಾಗ": 4761,
      "ಸಂಸ್": 4762,
      "ಅದೇ": 4763,
      "ಚೆನ್ನ": 4764,
      "ತಿಳಿಸಿದ್ದಾರೆ": 4765,
      "ರೀತಿಯ": 4766,
      "ಸಿನ": 4767,
      "ವ್ಯಕ್ತಪಡ": 4768,
      "ವಲ್ಲ": 4769,
      "ಬರುವ": 4770,
      "ಚಲ": 4771,
      "ಯಾಣ": 4772,
      "ಸ್ತಾ": 4773,
      "ಸ್ಥೆಯ": 4774,
      "ದೆಹ": 4775,
      "ಪ್ರಶಸ್": 4776,
      "ಮನೆಯ": 4777,
      "ಸರ್ಕಾರದ": 4778,
      "ಸಂಪೂರ್ಣ": 4779,
      "ಪ್ರಾಯ": 4780,
      "ನಿಖ": 4781,
      "ನಂಬ": 4782,
      "ಭ್ರ": 4783,
      "ಿದ್ದರೂ": 4784,
      "ಿಸುವುದ": 4785,
      "ಮುಂಬ": 4786,
      "ಬಂದಿದೆ": 4787,
      "ಕಳ": 4788,
      "ಪ್ರಕಟ": 4789,
      "ಪುಟ": 4790,
      "ಪತಿ": 4791,
      "ುತ್ತಾ": 4792,
      "ಡಿಯೋ": 4793,
      "ಲಾಗುತ್ತದೆ": 4794,
      "ನೈ": 4795,
      "ತೂ": 4796,
      "Ne": 4797,
      "18": 4798,
      "ನೀಡುವ": 4799,
      "ಲಾದ": 4800,
      "ಾರಾ": 4801,
      "ಂಜ": 4802,
      "ಉಡು": 4803,
      "200": 4804,
      "ನಿರ್ಮ": 4805,
      "13": 4806,
      "ಕಲ್ಪ": 4807,
      "ಷನ್": 4808,
      "ಕಾನೂ": 4809,
      "ಪತ್ತ": 4810,
      "ಕ್ತಿಯ": 4811,
      "ಹಳ್ಳಿ": 4812,
      "ಚುನಾವಣೆ": 4813,
      "ಧು": 4814,
      "ನ್ನಿ": 4815,
      "ತ್ತರ": 4816,
      "ಸೂರು": 4817,
      "ha": 4818,
      "ಿಸಿದ್ದು": 4819,
      "ಸೊ": 4820,
      "21": 4821,
      "ಬಂದಿ": 4822,
      "ಇತ್ತೀ": 4823,
      "ನನ್ನು": 4824,
      "ಕಚೇ": 4825,
      "ಠಾ": 4826,
      "ಧರ್ಮ": 4827,
      "ತಿಂಗಳ": 4828,
      "ವಾಲಯ": 4829,
      "ಳಗೆ": 4830,
      "ಪ್ರಾರಂಭ": 4831,
      "ರಾತ್ರಿ": 4832,
      "ಚಿಕ್ಕ": 4833,
      "ತುಂಬಾ": 4834,
      "ವ್ರ": 4835,
      "ಕೊರೊ": 4836,
      "ಎನ್ನುವ": 4837,
      "ಹಬ್ಬ": 4838,
      "ಳಾ": 4839,
      "ಫೈ": 4840,
      "ಬ್ದ": 4841,
      "ಅಮೆ": 4842,
      "ಹೋದ": 4843,
      "ವ್ಯಾಪ": 4844,
      "ಅಧಿಕಾರಿಗಳು": 4845,
      "ಯಿತು": 4846,
      "re": 4847,
      "ಸಾಲ": 4848,
      "ಸಂಖ್ಯೆ": 4849,
      "ಕೃತ": 4850,
      "ಭು": 4851,
      "ಮಾಧ್ಯ": 4852,
      "ಇದೀಗ": 4853,
      "ಹೀಗಾಗಿ": 4854,
      "ರಾಜ್ಯದ": 4855,
      "ಗೊತ್ತ": 4856,
      "ಕೈಗೊಳ್ಳ": 4857,
      "ome": 4858,
      "25": 4859,
      "ರಾಮಯ್ಯ": 4860,
      "ನ್ಯಾಯಾ": 4861,
      "ಸಿಎಂ": 4862,
      "ಲ್ಯಾ": 4863,
      "ಜೈ": 4864,
      "ಒಳ್ಳ": 4865,
      "ದೆಹಲಿ": 4866,
      "ಎಂಬುದು": 4867,
      "ಪ್ರವೇಶ": 4868,
      "ಒದಗ": 4869,
      "ಳಿಗೆ": 4870,
      "Pra": 4871,
      "ತ್ಸವ": 4872,
      "ತೆಯನ್ನು": 4873,
      "ೃಹ": 4874,
      "ಿತ": 4875,
      "ಟೇ": 4876,
      "ಬಣ್ಣ": 4877,
      "ದೇಹ": 4878,
      "ಸಾಂ": 4879,
      "ಮುಗ": 4880,
      "ಅನ್ನ": 4881,
      "ಎಚ್ಚ": 4882,
      "ಹಾಸ": 4883,
      "ಉದ್ದೇಶ": 4884,
      "ಯಶಸ್": 4885,
      "ಉಂಟ": 4886,
      "ರವಿ": 4887,
      "ನಿರೀಕ್ಷ": 4888,
      "ವಸ್ತು": 4889,
      "ಹೋಗಿ": 4890,
      "ಿಸಿದರೆ": 4891,
      "14": 4892,
      "ago": 4893,
      "ಕೊರೊನಾ": 4894,
      "ಶಂ": 4895,
      "ದಕ್ಷಿ": 4896,
      "ಜೂ": 4897,
      "Home": 4898,
      "ಕ್ಷಣ": 4899,
      "ಗಾರಿ": 4900,
      "ವಾಗುತ್ತದೆ": 4901,
      "ಆತ್ಮ": 4902,
      "ವಣೆ": 4903,
      "ತೋರ": 4904,
      "ವೃತ್ತ": 4905,
      "ಷೇ": 4906,
      "ದಲ್ಲಿರುವ": 4907,
      "ಅಳ": 4908,
      "ಇಷ್ಟ": 4909,
      "ಸೋಮ": 4910,
      "ಉದ್ಯೋ": 4911,
      "ರಿಗೂ": 4912,
      "ಜಾರ": 4913,
      "ಸಾಹಿತ್ಯ": 4914,
      "ನ್ಯೂ": 4915,
      "ಕಂಪನಿ": 4916,
      "ಸಿಬ್ಬ": 4917,
      "ಪ್ಪಿ": 4918,
      "ಯಲ್ಲಿ": 4919,
      "ಹಿತ": 4920,
      "ಜೆಡಿ": 4921,
      "ಆಸ್ಪತ್ರೆ": 4922,
      "ನೀಡಿದ್ದಾರೆ": 4923,
      "ತ್ವದ": 4924,
      "ಗಿಂತ": 4925,
      "ಮಲ": 4926,
      "ws": 4927,
      "ನೀಡಿದರು": 4928,
      "ದ್ದರಿಂದ": 4929,
      "ರಾಗಿ": 4930,
      "ಚಿತ್ರದ": 4931,
      "ನಮಗೆ": 4932,
      "ಸಾಮ": 4933,
      "ವಾರು": 4934,
      "ಕ್ರಿಯೆ": 4935,
      "ರೈತ": 4936,
      "ಮೈಸೂರು": 4937,
      "ಕೋವಿಡ್": 4938,
      "ಕ್ಕು": 4939,
      "ನಿಯಂತ್ರ": 4940,
      "ಗಾಯ": 4941,
      "ೀರಿ": 4942,
      "ಮರು": 4943,
      "ಪ್ರಶಸ್ತಿ": 4944,
      "ti": 4945,
      "ಾಗಿದ್ದು": 4946,
      "ಾಗಿದ್ದ": 4947,
      "ಸಾಕಷ್ಟು": 4948,
      "ಮ್‌": 4949,
      "ತಯಾರ": 4950,
      "ಮಾತನಾಡಿ": 4951,
      "ಮನವಿ": 4952,
      "ಒಪ್ಪ": 4953,
      "ಮಾರುಕಟ್ಟ": 4954,
      "ದಿಯ": 4955,
      "ಧ್ಯಾ": 4956,
      "ದಾಖಲ": 4957,
      "ವರ್ಷಗಳ": 4958,
      "ಷ್ಯ": 4959,
      "ಪಿಯ": 4960,
      "ಫಲ": 4961,
      "ಇದಕ್ಕೆ": 4962,
      "ದಲ್ಲೇ": 4963,
      "ವ್ಯವಸ್ಥೆ": 4964,
      "ತಿಂ": 4965,
      "ಗ್ರಾಹ": 4966,
      "ಇಂತಹ": 4967,
      "ತೊಡ": 4968,
      "ಮಾಡಿಕೊಳ್ಳ": 4969,
      "ನಿಲ್": 4970,
      "ವಿಮಾನ": 4971,
      "ರುವುದರಿಂದ": 4972,
      "ಬಂದು": 4973,
      "ಸೇರಿ": 4974,
      "ನೆನ": 4975,
      "ಸಣ್ಣ": 4976,
      "ಉಳಿದ": 4977,
      "ಿಸುತ್ತಾರೆ": 4978,
      "ಹಾಗೆ": 4979,
      "ಅತ್ಯಂತ": 4980,
      "ರೋಗ": 4981,
      "ನಿಲ್ಲ": 4982,
      "ಅಂಶ": 4983,
      "ಹಿಡಿದ": 4984,
      "ಬೆಂಬಲ": 4985,
      "ಮನಸ್": 4986,
      "ನಾದ": 4987,
      "ಸದ್ಯ": 4988,
      "ಹುಡು": 4989,
      "ರಾಯ": 4990,
      "ಸಿದ್ದರಾಮಯ್ಯ": 4991,
      "ವಳಿ": 4992,
      "ಕ್ಕಿಂತ": 4993,
      "ಹತ್ಯ": 4994,
      "ನರ್": 4995,
      "ಮೂಡ": 4996,
      "ಒಟ್ಟು": 4997,
      "ಮುನ್ನ": 4998,
      "ತಲು": 4999,
      "ಸಂಬಂಧಿಸಿದ": 5000,
      "ಚಿಕಿತ್ಸೆ": 5001,
      "ದಿನಗಳ": 5002,
      "ಒಂದೇ": 5003,
      "ಯುಕ್ತ": 5004,
      "ಮೇಲ್": 5005,
      "ಕರಿಗೆ": 5006,
      "ಸ್ಪಷ್ಟ": 5007,
      "ಆಫ್": 5008,
      "ವಿಜಯ": 5009,
      "ಆಡಳಿತ": 5010,
      "ತಲೆ": 5011,
      "ಅಭ್ಯರ್ಥಿ": 5012,
      "ಹಿನ್ನೆಲೆಯಲ್ಲಿ": 5013,
      "ಶ್‌": 5014,
      "ಲಿಂಗ": 5015,
      "ರದ": 5016,
      "ಕೌ": 5017,
      "ಸ್ವಲ್ಪ": 5018,
      "ಮಾಡಿದೆ": 5019,
      "ಕೆಯನ್ನು": 5020,
      "ಪತ್ರಿ": 5021,
      "ನ್ಯಾಯ": 5022,
      "ದೃ": 5023,
      "ಪುಸ್ತ": 5024,
      "Praj": 5025,
      "ಮಾನಿ": 5026,
      "ವಾಸಿ": 5027,
      "ರೀತಿ": 5028,
      "ಶೈ": 5029,
      "ಪರಿಶೀಲ": 5030,
      "ಮೃತ": 5031,
      "ಸ್ಪರ್ಧ": 5032,
      "ೀತ": 5033,
      "ನಾಲ್ಕು": 5034,
      "ಮರ್": 5035,
      "ಆರ್ಥಿ": 5036,
      "ಬೇಡಿ": 5037,
      "16": 5038,
      "ಗಳೊಂದಿಗೆ": 5039,
      "ದರ್ಶಿ": 5040,
      "ಬಾರದು": 5041,
      "ಸ್ಥಳೀಯ": 5042,
      "ಾಗಿದ್ದಾರೆ": 5043,
      "ಪುಸ್ತಕ": 5044,
      "ಚ್ಛ": 5045,
      "ಎನ್‌": 5046,
      "ಪೂರ್ವ": 5047,
      "ೂರಪ್ಪ": 5048,
      "ಬಳಸಿ": 5049,
      "ಡಿಗೆ": 5050,
      "Prajavani": 5051,
      "ಯಡಿಯ": 5052,
      "ಬಿದ್ದ": 5053,
      "ಏಕೆ": 5054,
      "na": 5055,
      "ಗಳಿವೆ": 5056,
      "ಾಯ್": 5057,
      "ಜಿಲ್ಲೆ": 5058,
      "ಸಂಜೆ": 5059,
      "ತೀರ್": 5060,
      "ಶಕ್ತಿ": 5061,
      "ಂಟಿ": 5062,
      "ದುರ್": 5063,
      "ರಲಿಲ್ಲ": 5064,
      "ಡಿಸ": 5065,
      "ನಡೆಸಿ": 5066,
      "ದಕ್ಷಿಣ": 5067,
      "ಹೌ": 5068,
      "''": 5069,
      "ಯಡಿಯೂರಪ್ಪ": 5070,
      "ಸಂಗ್ರಹ": 5071,
      "ಮುಖಂಡ": 5072,
      "ನಿರ": 5073,
      "ಮಾಧ್ಯಮ": 5074,
      "ಭದ್ರ": 5075,
      "ಸ್ನೇ": 5076,
      "ಡೌ": 5077,
      "ಮಾತನಾಡಿದ": 5078,
      "ಕಾರ್ಯಕರ್": 5079,
      "ನಿಗ": 5080,
      "ತಿಗೆ": 5081,
      "),": 5082,
      "ಪ್ರಶ್ನೆ": 5083,
      "ತೀವ್ರ": 5084,
      "ಆದೇಶ": 5085,
      "ಧ್": 5086,
      "24": 5087,
      "ಜೇ": 5088,
      "ನಿರ್ದೇಶಕ": 5089,
      "ಆಚರ": 5090,
      "ಬಿಟ್ಟ": 5091,
      "ಿಸುತ್ತೇ": 5092,
      "ವರ್ಗ": 5093,
      "ಮಠ": 5094,
      "ವರನ್ನು": 5095,
      "ಓದಿ": 5096,
      "ಸಮೀ": 5097,
      "ಒಳ್ಳೆಯ": 5098,
      "ಹಲವಾರು": 5099,
      "ಸಾಹ": 5100,
      "ವಿಗೆ": 5101,
      "ಸ್ಟ್ರ": 5102,
      "ಗೌರವ": 5103,
      "ನಿರ್ಧಾರ": 5104,
      "News": 5105,
      "ಕಾನೂನು": 5106,
      "ಪಾರ್": 5107,
      "ಖರ್": 5108,
      "ನ್ಯಾಸ": 5109,
      "ಹಂಚಿ": 5110,
      "ಸತ್ಯ": 5111,
      "min": 5112,
      "ಕೇಳಿ": 5113,
      "ತೆರೆ": 5114,
      "ರಷ್ಟು": 5115,
      "....": 5116,
      "ಬಗೆ": 5117,
      "ರಾಜ್ಯದಲ್ಲಿ": 5118,
      "22": 5119,
      "ಲಸಿ": 5120,
      "ಆದ್ದರಿಂದ": 5121,
      "ಸುವ": 5122,
      "ಬಾಲ": 5123,
      "ಪಾಲ್": 5124,
      "ವನ್ನ": 5125,
      "ಖಾಸ": 5126,
      "ಬದಲಾ": 5127,
      "ಶೋಧ": 5128,
      "ವಿರೋಧ": 5129,
      "ಟೈ": 5130,
      "ಮೂರ್ತಿ": 5131,
      "17": 5132,
      "ಾಗುವ": 5133,
      "ಸರ್ಕಾರಿ": 5134,
      "ನಿಂತ": 5135,
      "ಸೂಕ್ತ": 5136,
      "ಕಾಂಗ್ರೆಸ್‌": 5137,
      "ಗೊಂಡಿ": 5138,
      "ಮನೆಯಲ್ಲಿ": 5139,
      "ಶೆಟ್ಟಿ": 5140,
      "ಅಂದ": 5141,
      "ಇನ್": 5142,
      "ತಿಳಿದು": 5143,
      "ಆಗಿದೆ": 5144,
      "ಸರಿಯ": 5145,
      "ಲಾಗುತ್ತಿದೆ": 5146,
      "ಉದ್": 5147,
      "ಮಿಯ": 5148,
      "ಕಳೆದು": 5149,
      "ಸಮಯದಲ್ಲಿ": 5150,
      "ತಾಲ್ಲೂ": 5151,
      "ಗುರುತ": 5152,
      "ಸ್ತಾನ": 5153,
      "ಘಟಕ": 5154,
      "ಜಾಲ": 5155,
      "000": 5156,
      "ಉತ್ಪಾದ": 5157,
      "ಸಭೆಯಲ್ಲಿ": 5158,
      "ರೇಂದ್ರ": 5159,
      "ಸಮುದಾಯ": 5160,
      "ಜಾರಿ": 5161,
      "ವಾಡ": 5162,
      "ಬಿಟ್ಟು": 5163,
      "ಡಿಸಿ": 5164,
      "ಪ್ರತಿಯ": 5165,
      "ಟ್ಟೆ": 5166,
      "ಜಿಲ್ಲೆಯಲ್ಲಿ": 5167,
      "ವಿತರ": 5168,
      "ತಿಯಿಂದ": 5169,
      "ಪನ್ನ": 5170,
      "ಿಸುವಂತೆ": 5171,
      "ಫೇ": 5172,
      "ನಾರ": 5173,
      "ತಂದ": 5174,
      "ರಿಯಾ": 5175,
      "ಪ್ರಿಯ": 5176,
      "ಎದುರ": 5177,
      "ಸಂಸ್ಥೆಯ": 5178,
      "ಲಾಗುವುದು": 5179,
      "ತಲುಪ": 5180,
      "ಕಿಂಗ್": 5181,
      "ಮಾಡಲಾಗಿದೆ": 5182,
      "ಕಾಶ್": 5183,
      "ಕಥೆ": 5184,
      "ತಿರು": 5185,
      "ಪ್ಯಾ": 5186,
      "ಮಟ್ಟದ": 5187,
      "ಕ್ರಾ": 5188,
      "ಿತು": 5189,
      "್‌": 5190,
      "ಕೊಂಡಿದ್ದಾರೆ": 5191,
      "ಗಾಂಧಿ": 5192,
      "ಕಾಯಿ": 5193,
      "ಎನ್ನ": 5194,
      "ಸಮಿತಿ": 5195,
      "ಫೋನ್": 5196,
      "ಪಾವ": 5197,
      "ಖ್ಯಾ": 5198,
      "ುತ್ತೇವೆ": 5199,
      "ಮೊಬೈ": 5200,
      "ಸ್ಟಾರ್": 5201,
      "ತ್ಮಕ": 5202,
      "ಿಲ್ಲ": 5203,
      "ಅರಿ": 5204,
      "ಸಂಗೀತ": 5205,
      "ಅರ": 5206,
      "ುತ್ತೇನೆ": 5207,
      "ಓದ": 5208,
      "ಮಣ": 5209,
      "ಟ್ರೋ": 5210,
      "ಅಪ್": 5211,
      "ಬೇಕೆಂದು": 5212,
      "ಬಸವ": 5213,
      "ಎಷ್ಟು": 5214,
      "ರವಾಗಿ": 5215,
      "ಲರ್": 5216,
      "ಎನ್ನುವು": 5217,
      "ಂಪು": 5218,
      "ಕೊಳ್ಳುವ": 5219,
      "ಅದಕ್ಕೆ": 5220,
      "ುತ್ತಿದ್ದು": 5221,
      "ಮಾಡಬೇಕು": 5222,
      "ಪ್ರಧಾನ": 5223,
      "ಅಂಬ": 5224,
      "ನೇಮ": 5225,
      "ವೃತ್ತಿ": 5226,
      "ಲ್ಲು": 5227,
      "ಲಂ": 5228,
      "ಉದಯ": 5229,
      "ಕೊರೋ": 5230,
      "ತನಿಖ": 5231,
      "ಪ್ರೊ": 5232,
      "ಚೆಗೆ": 5233,
      "ಸಿಗೆ": 5234,
      "ಮಕ್ಕಳು": 5235,
      "ಜನರಿಗೆ": 5236,
      "ರಿಯಲ್ಲಿ": 5237,
      "ತಮಿ": 5238,
      "ಭಾಗವಹ": 5239,
      "ಹೊಂದಿರುವ": 5240,
      "ಬೊ": 5241,
      "ಮೆಯ": 5242,
      "ಪರೀಕ್ಷೆ": 5243,
      "ಎಂಬುದನ್ನು": 5244,
      "ಪ್ರತಿಭಟನೆ": 5245,
      "ಕೊಳ್ಳಿ": 5246,
      "ಧನ": 5247,
      "ಡುಗೆ": 5248,
      "ಲಕ್ಷ್": 5249,
      "ಸಲಹೆ": 5250,
      "ವಿಸ್": 5251,
      "ದಿನಗಳಲ್ಲಿ": 5252,
      "ಯನ": 5253,
      "ಆಸ": 5254,
      "ಹೊಂದಿದೆ": 5255,
      "ಕಾರ್ಯದರ್ಶಿ": 5256,
      "ಮಂಗಳೂರು": 5257,
      "ಿಸಿತು": 5258,
      "ದಾಳಿ": 5259,
      "ಸಾಧ್ಯತೆ": 5260,
      "ಲಿದ್ದಾರೆ": 5261,
      "ಅಭಿಪ್ರಾಯ": 5262,
      "ನೀರಿನ": 5263,
      "!!": 5264,
      "ಮೀನು": 5265,
      "ಸನ್": 5266,
      "ಟಿಕೆ": 5267,
      "ಬಸ್": 5268,
      "ಪ್ರಿ": 5269,
      "ಟರ್‌": 5270,
      "ಬಡ": 5271,
      "ಸುಲಭ": 5272,
      "ದ್ಯಂತ": 5273,
      "ಸಾರ್ವಜನಿಕ": 5274,
      "ಖಾಸಗಿ": 5275,
      "ಮನೆಗೆ": 5276,
      "ದೇವಾಲಯ": 5277,
      "ನಿಯಮ": 5278,
      "ಕೋರ್ಟ್": 5279,
      "ಅಭಿಮಾನಿ": 5280,
      "ಆರ್ಥಿಕ": 5281,
      "ಶಿಷ್ಟ": 5282,
      "ನಲ್": 5283,
      "ಉದ್ಯೋಗ": 5284,
      "ಅಧ್ಯ": 5285,
      "ಪೂರೈ": 5286,
      "ಸೃಷ್ಟ": 5287,
      "ಪಾಕಿ": 5288,
      "ಲೆಕ್": 5289,
      "ಚಿಂತ": 5290,
      "ಸ್ವೀ": 5291,
      "​​": 5292,
      "ವಿದ್ಯು": 5293,
      "ವಲಯ": 5294,
      "ಂಡು": 5295,
      "ಅರ್ಜಿ": 5296,
      "ಗಳಾದ": 5297,
      "ಿದ್ದೆ": 5298,
      "ಡಿಯಲ್ಲಿ": 5299,
      "ುತ್ತಿಲ್ಲ": 5300,
      "ಡಿನ": 5301,
      "ಿಕ": 5302,
      "ನಿಲ್ದಾ": 5303,
      "ಜನ್": 5304,
      "ಇಂಗ್": 5305,
      "ಪ್ರಚಾರ": 5306,
      "ಹೇಳಿದ": 5307,
      "ವೇದಿ": 5308,
      "ಮತ್ತೊಂದು": 5309,
      "ಲೇಖನ": 5310,
      "ದೂರು": 5311,
      "ಪ್ರದರ್ಶನ": 5312,
      "ಕಾಯ್ದ": 5313,
      "ರಕ್ತ": 5314,
      "ದೋ": 5315,
      "ಸಿಯ": 5316,
      "ಣ್ಣಿ": 5317,
      "ರೈತರ": 5318,
      "ಅಂತರ": 5319,
      "ಶತ": 5320,
      "ಗಂಟೆ": 5321,
      "ಯಾರು": 5322,
      "ಬೇಡ": 5323,
      "ಅವಧ": 5324,
      "ವ್ಯಾಪ್": 5325,
      "ವೋ": 5326,
      "ಜಿಲ್ಲಾಧಿಕಾರಿ": 5327,
      "ಿಸಲಾಯಿತು": 5328,
      "ಹೃ": 5329,
      "ಪರಿಸ": 5330,
      "ಕರೆಯ": 5331,
      "ಂಡ್‌": 5332,
      "ಮಾಡುತ್ತದೆ": 5333,
      "ವಾಗಿದ್ದು": 5334,
      "ಮಗು": 5335,
      "ಬ್‌": 5336,
      "ಖು": 5337,
      "ಉಳ": 5338,
      "ಮನು": 5339,
      "ಸಿಬ್ಬಂದಿ": 5340,
      "ಮಿಷ": 5341,
      "ಡ್ರ": 5342,
      "ಉತ್ಪನ್ನ": 5343,
      "ನೀಡಲು": 5344,
      "ಸೂಚನೆ": 5345,
      "ಶಯ": 5346,
      "ಭಿನ್ನ": 5347,
      "ವಯಸ್": 5348,
      "ಇಂಡಿಯಾ": 5349,
      "ಗತಿ": 5350,
      "ಧೀ": 5351,
      "ಇವರ": 5352,
      "ಹೇಳಿಕೆ": 5353,
      "ತಡೆ": 5354,
      "ಸಿಕ": 5355,
      "ವರ್ತ": 5356,
      "ಬರೆದ": 5357,
      "ಸೌಲಭ್ಯ": 5358,
      "ದೈ": 5359,
      "ಹರಿ": 5360,
      "ಚ್ಚು": 5361,
      "ದಾಖಲೆ": 5362,
      "ಸೋಮವಾರ": 5363,
      "ಗೀ": 5364,
      "ಅಮೆರಿಕ": 5365,
      "ಮುಂಬೈ": 5366,
      "ಪ್ರತ್ಯ": 5367,
      "ದೇವಸ್ಥಾನ": 5368,
      "ನಡೆದಿದೆ": 5369,
      "ಕೆರೆ": 5370,
      "ದಿನಾ": 5371,
      "ಕಾಂ": 5372,
      "ಬದಲಾಯ": 5373,
      "ಂಟು": 5374,
      "ಮೌಲ್ಯ": 5375,
      "ವಾನ": 5376,
      "ೇಶ್": 5377,
      "ಮ್ಮಿ": 5378,
      "ನೇತೃ": 5379,
      "ಗಳೂ": 5380,
      "ಲಿಂ": 5381,
      "ಕಣ": 5382,
      "ಿಸುತ್ತಿದ್ದಾರೆ": 5383,
      "ಜಲ": 5384,
      "ಪತ್": 5385,
      "ಎರಡನೇ": 5386,
      "ರಾಹು": 5387,
      "day": 5388,
      "ಚಟ": 5389,
      "ಲೈನ್": 5390,
      "ತಿಳಿಯ": 5391,
      "anna": 5392,
      "ಾದರೂ": 5393,
      "ಿಸು": 5394,
      "ಸ್ಯಾ": 5395,
      "ಕ್ಸ್‌": 5396,
      "ಇತಿ": 5397,
      "ಒತ್ತಾಯ": 5398,
      "ಫೀ": 5399,
      "ನರೇಂದ್ರ": 5400,
      "ನೌ": 5401,
      "ಕಲಿ": 5402,
      "ವಣಿಗೆ": 5403,
      "ಿಸಿಕೊಂಡು": 5404,
      "ಹತ್ತಿ": 5405,
      "ಖರೀದ": 5406,
      "ಶುಕ್ರ": 5407,
      "ತೊಂದ": 5408,
      "ಚಯ": 5409,
      "ಪ್ರಸ್ತು": 5410,
      "ಮಾಡುವುದು": 5411,
      "ಮಾಡಿದರು": 5412,
      "ವನ್ನೂ": 5413,
      "ಸಿಕ್ಕ": 5414,
      "ೊಮ್ಮೆ": 5415,
      "ಇಡೀ": 5416,
      "ಕ್ರೋ": 5417,
      "ಿಸುತ್ತಿರುವ": 5418,
      "ಘಾತ": 5419,
      "ದಂಡ": 5420,
      "ಲಿತಾ": 5421,
      "ಕರನ್ನು": 5422,
      "ರಸ್ತ": 5423,
      "ಜ್ಞಾ": 5424,
      "ಕೊಳ್ಳಲು": 5425,
      "ರಾಜು": 5426,
      "ಿದ್ದಾನೆ": 5427,
      "ಇವು": 5428,
      "ಹತ್ಯೆ": 5429,
      "ಲ್ಲೆ": 5430,
      "ಟ್ಟಿನಲ್ಲಿ": 5431,
      "ಫೋಟೋ": 5432,
      "ಅಂದರೆ": 5433,
      "ಬಿಸಿ": 5434,
      "ಕಟ್ಟಡ": 5435,
      "ಕಳು": 5436,
      "ಚುನಾವಣೆಯಲ್ಲಿ": 5437,
      "ಬ್ರಿ": 5438,
      "ಯೋಜನೆಯ": 5439,
      "ವರೆಗೂ": 5440,
      "ನಿರಾ": 5441,
      "ಭಾರತದಲ್ಲಿ": 5442,
      "ರೊ": 5443,
      "ದೊಂದಿಗೆ": 5444,
      "ವೇಗ": 5445,
      "ಾನುವ": 5446,
      "ನಾರಾಯ": 5447,
      "ಕಾಲೇಜು": 5448,
      "ವೆಚ್ಚ": 5449,
      "ಮಹಿಳಾ": 5450,
      "ನಿರ್ಧರ": 5451,
      "ಹಾಗಾಗಿ": 5452,
      "ಸುಂದ": 5453,
      "ಕೆಳ": 5454,
      "ಐದು": 5455,
      "ಹಾರಾ": 5456,
      "ನ್ಯಾಯಾಲಯ": 5457,
      "ಕೂಲ": 5458,
      "ಅನ್": 5459,
      "dayavani": 5460,
      "ಸೋಂಕು": 5461,
      "ಪಾಟೀ": 5462,
      "ಇಲಾಖೆಯ": 5463,
      "ಪ್ರತಿನಿ": 5464,
      "ಸಹಕಾರ": 5465,
      "23": 5466,
      "ಸುರಕ್ಷ": 5467,
      "ಂಗ್‌": 5468,
      "ನಗ": 5469,
      "ಎಂದರೆ": 5470,
      "ನಿನ್ನ": 5471,
      "ಮುಕ್ತ": 5472,
      "ವಿಕೆ": 5473,
      "ತರಬೇ": 5474,
      "ಕಳುಹ": 5475,
      "ಎಂಜಿ": 5476,
      "ಉದಯವಾಣಿ": 5477,
      "ವಿಷ್ಯ": 5478,
      "ಸಂಸದ": 5479,
      "ತಾಣ": 5480,
      "ಭೀ": 5481,
      "ಯಾರಿ": 5482,
      "ಸ್ಟ್‌": 5483,
      "ತಮಿಳು": 5484,
      "ನಡೆಸಿದ": 5485,
      "ಅಳವ": 5486,
      "ಸಂಭವ": 5487,
      "Kanna": 5488,
      "ಗಳೇ": 5489,
      "ತೆರ": 5490,
      "ಆರೋಪಿ": 5491,
      "ಲಸಿಕೆ": 5492,
      "ಿಸಲಾಗುತ್ತದೆ": 5493,
      "ಶುಕ್ರವಾರ": 5494,
      "ಬರೆಯ": 5495,
      "ಕುಮಾರಸ್ವಾಮಿ": 5496,
      "ನಟಿ": 5497,
      "ಶಾಸ್ತ್ರ": 5498,
      "ಗಳಾಗಿ": 5499,
      "ಪ್ರಸ್ತುತ": 5500,
      "ಹಿಂದೂ": 5501,
      "ತ್ರಿಯ": 5502,
      "ವಿಡಿಯೋ": 5503,
      "ಇವರು": 5504,
      "ಜಿಯ": 5505,
      "ಗ್ರಾಮದ": 5506,
      "ಗುರುವ": 5507,
      "ಕದ": 5508,
      "ನಯ": 5509,
      "ಕೆಯಲ್ಲಿ": 5510,
      "ುತ್ತಿದ್ದರು": 5511,
      "ನ್ನಾ": 5512,
      "ಅಂತಿ": 5513,
      "ಕ್ರೀಡಾ": 5514,
      "ಪಾಕಿಸ್ತಾನ": 5515,
      "ಕವಿ": 5516,
      "ಭಯ": 5517,
      "ಸಿಂ": 5518,
      "ಚಟುವ": 5519,
      "ಕೊರೋನಾ": 5520,
      "ಇಬ್ಬರು": 5521,
      "ಜೆಡಿಎಸ್": 5522,
      "ರಬೇಕು": 5523,
      "ವುಡ್": 5524,
      "ನರ": 5525,
      "ವಂತ": 5526,
      "ಪರಿಸರ": 5527,
      "ನೀಡಿದೆ": 5528,
      "ಪೋಷ": 5529,
      "ಸ್ಟಿ": 5530,
      "ಹಸಿ": 5531,
      "ಕುಡಿಯ": 5532,
      "ತಾಲೂಕಿನ": 5533,
      "ೀಕರಣ": 5534,
      "40": 5535,
      "Udayavani": 5536,
      "್ಯು": 5537,
      "ಬಲ್": 5538,
      "ಮೆಂಟ್": 5539,
      "ನೆಯನ್ನು": 5540,
      "ಮಾನವ": 5541,
      "ಮನ್": 5542,
      "ೋಣ": 5543,
      "ತ್ತಿನ": 5544,
      "ಪಾಲಿ": 5545,
      "ಲಾಭ": 5546,
      "ನವದೆಹಲಿ": 5547,
      "ಶನ್": 5548,
      "le": 5549,
      "ಅಲ್ಲದೆ": 5550,
      "ಆಟಗಾರ": 5551,
      "ಸಂಶೋಧ": 5552,
      "ಹಿಂದಿನ": 5553,
      "ಠಿ": 5554,
      "ಭವಿಷ್ಯ": 5555,
      "ಹ್ಯಾ": 5556,
      "ಟ್ರಾ": 5557,
      "ಮಹಾರಾ": 5558,
      "ಫಾ": 5559,
      "ಉಡುಪಿ": 5560,
      "ಸೆಲ್": 5561,
      "ಹೌದು": 5562,
      "ಟೊ": 5563,
      "ಆತಂಕ": 5564,
      "ಟ್ರಿ": 5565,
      "ಬ್ಯಾಂಕ್": 5566,
      "ಇವೆ": 5567,
      "ರೂಪಾಯಿ": 5568,
      "ದಿದ್ದರೆ": 5569,
      "ಅಂತಿಮ": 5570,
      "ಕಾಲಿ": 5571,
      "ಬೆಳಗಾ": 5572,
      "ಸಂಘದ": 5573,
      "ನೋಡಿದ": 5574,
      "ತಾಯಿ": 5575,
      "ಪ್ಲಾ": 5576,
      "ಭರವ": 5577,
      "ಪರಿಸ್ಥಿತಿ": 5578,
      "ಮಳೆಯ": 5579,
      "ಕಡ": 5580,
      "ಶ್ರೇ": 5581,
      "ಆಸ್ಪತ್ರ": 5582,
      "ಮಾಡಬಹುದು": 5583,
      "ತಂಡದ": 5584,
      "ನಂಬಿ": 5585,
      "ಅವನ": 5586,
      "ಾಗ್": 5587,
      "ಶನಿವಾರ": 5588,
      "ಕ್ಸಿ": 5589,
      "ಬುಧ": 5590,
      "ಮೊಬೈಲ್": 5591,
      "ಮತಿ": 5592,
      "ವಾಳ": 5593,
      "ಕಣ್ಣ": 5594,
      "ತೊಡಗ": 5595,
      "ಿಸುತ್ತಿದೆ": 5596,
      "ಚುನಾವಣಾ": 5597,
      "ಲದ": 5598,
      "ತಂತ್ರಜ್ಞಾನ": 5599,
      "ಬೆಳೆಯ": 5600,
      "ಯನ್ನು": 5601,
      "ರ್ಶ": 5602,
      "ಧಾರ್": 5603,
      "ಉದಾ": 5604,
      "ಕಾರ್ಯಾ": 5605,
      "ಮಂದ": 5606,
      "ಪಟ್ಟಿ": 5607,
      "ಗಾರಿಕೆ": 5608,
      "ಲಾಕ್": 5609,
      "ಶ್ರಮ": 5610,
      "100": 5611,
      "ಗಳೆ": 5612,
      "ಪ್ರೋ": 5613,
      "ಸಂಚಾರ": 5614,
      "ಇಲ್ಲಿನ": 5615,
      "ವಾಯಿತು": 5616,
      "ುತ್ತಿವೆ": 5617,
      "ನಗರದಲ್ಲಿ": 5618,
      "ಬದಲಾವಣೆ": 5619,
      "ಯಾವಾಗ": 5620,
      "ಟ್ಯಾ": 5621,
      "ರನ್": 5622,
      "ನಿಷ್ಠ": 5623,
      "ದೇವರ": 5624,
      "ಆಗ್ರಹ": 5625,
      "ನಾಥ್": 5626,
      "ದೃಷ್ಟ": 5627,
      "ಏಕ": 5628,
      "ರೀತಿಯಲ್ಲಿ": 5629,
      "ಿಸಿತ್ತು": 5630,
      "ಕರ್ತ": 5631,
      "ಕಟ್ಟಿ": 5632,
      "ಎನ್ನುತ್ತ": 5633,
      "ಮಾತನಾಡಿದರು": 5634,
      "ುತ್ತಮ": 5635,
      "ಕ್ಷೇತ್ರದ": 5636,
      "ವೀರ": 5637,
      "ಪ್ತ": 5638,
      "ಪುರು": 5639,
      "ರ್ಜ": 5640,
      "ವರಣ": 5641,
      "ಮೇಶ್": 5642,
      "ಟದ": 5643,
      "ರುತ್ತಾರೆ": 5644,
      "ಣಿಗೆ": 5645,
      "ಕ್ಷೇತ್ರದಲ್ಲಿ": 5646,
      "ಅತ್ಯುತ್ತಮ": 5647,
      "ಂಟರ್": 5648,
      "ಆಪ": 5649,
      "ಆಗಮ": 5650,
      "ದೇಶದಲ್ಲಿ": 5651,
      "ರುವುದಿಲ್ಲ": 5652,
      "ಕೊನೆಯ": 5653,
      "ಸಂಭ್ರ": 5654,
      "ಮಂಗಳವಾರ": 5655,
      "ಲಾಯಿತು": 5656,
      "ಗುರುವಾರ": 5657,
      "ಸುಪ್ರೀ": 5658,
      "ಿಸಲಾಗುವುದು": 5659,
      "ಣಿಯ": 5660,
      "ಮಗಾರಿ": 5661,
      "ಲಿತಾಂಶ": 5662,
      "ವಶ": 5663,
      "ರಾಜೀ": 5664,
      "ಕಾಮಗಾರಿ": 5665,
      "ಸಾಮರ್ಥ": 5666,
      "ಮಾಡುವುದ": 5667,
      "ad": 5668,
      "ಮನುಷ್ಯ": 5669,
      "ಪರಿಚಯ": 5670,
      "ಒತ್ತಡ": 5671,
      "ರೈತರು": 5672,
      "ಜರ್": 5673,
      "ರಾವ್": 5674,
      "ನಾಮ": 5675,
      "ವ್ಯವಹಾರ": 5676,
      "ಸಾಮರ್ಥ್ಯ": 5677,
      "ದೂ": 5678,
      "ಯಾಕೆ": 5679,
      "ತಂತ್": 5680,
      "Kannada": 5681,
      "ಚರ್ಚೆ": 5682,
      "ವಿದ್ಯಾರ್ಥಿಗಳು": 5683,
      "ನಿಯಂತ್ರಣ": 5684,
      "ಕೇರಳ": 5685,
      "ಅರಣ": 5686,
      "ಬೌ": 5687,
      "ವ್ಯಕ್ತಿಯ": 5688,
      "ಎಲ್‌": 5689,
      "ಬುಧವಾರ": 5690,
      "ಮದುವ": 5691,
      "ಎಚ್‌": 5692,
      "ಲಿರುವ": 5693,
      "ಇದರಲ್ಲಿ": 5694,
      "ಹುಡುಗ": 5695,
      "ಭಾಷೆ": 5696,
      "ಲಿತ": 5697,
      "ಪೂಜೆ": 5698,
      "ಡೋ": 5699,
      "ಬಂಡ": 5700,
      "28": 5701,
      "ರ್ಣ": 5702,
      "ದ್ದೆ": 5703,
      "ಬೆಳವಣಿಗೆ": 5704,
      "ತಿಂಗಳು": 5705,
      "ಸಂಪಾದ": 5706,
      "ಾಂತರ": 5707,
      "೨೦": 5708,
      "ಪ್ರದೇಶದಲ್ಲಿ": 5709,
      "ನದಲ್ಲಿ": 5710,
      "ಮಕ್ಕಳಿಗೆ": 5711,
      "ಜತೆ": 5712,
      "ಟನ್": 5713,
      "ಗೊಂಡಿದೆ": 5714,
      "ಒಟ್ಟ": 5715,
      "26": 5716,
      "ಅಧ್ಯಯನ": 5717,
      "ಸುಪ್ರೀಂ": 5718,
      "ವ್ಯಾಪಾರ": 5719,
      "ತೆಗೆದುಕೊಳ್ಳ": 5720,
      "ನಾರಾಯಣ": 5721,
      "ಬಳ್ಳ": 5722,
      "ಸ್ವಾಗ": 5723,
      "ದಿನದ": 5724,
      "ತಂದೆ": 5725,
      "ನೂತನ": 5726,
      "ಪುರುಷ": 5727,
      "ಹೆಸರ": 5728,
      "ಎಲ್ಲಿ": 5729,
      "ಮಾಡಿದ್ದ": 5730,
      "ಎರಡೂ": 5731,
      "ಂಭೀ": 5732,
      "ಬ್ರಾ": 5733,
      "ಪ್ರಯಾಣ": 5734,
      "ಾಳೆ": 5735,
      "..!": 5736,
      "ಿರುವ": 5737,
      "ಲಾರ": 5738,
      "೧೯": 5739,
      "ಕೊಂಡಿರುವ": 5740,
      "ಮಂಜು": 5741,
      "ಏರ್": 5742,
      "ಗಟ್ಟ": 5743,
      "ಟೂ": 5744,
      "ದಲ್ಲೂ": 5745,
      "ವೀಕ್ಷ": 5746,
      "ಕಾರ್ಯಕ್ರಮದಲ್ಲಿ": 5747,
      "ಕರಾ": 5748,
      "ಲ್ಲಿದ್ದ": 5749,
      "ರೈಲು": 5750,
      "ಸ್ವಾಗತ": 5751,
      "ಫಲಿತಾಂಶ": 5752,
      "ತಾರ": 5753,
      "ುವರಿ": 5754,
      "ಚನೆ": 5755,
      "ಅಕ್": 5756,
      "ತಿಕ": 5757,
      "ಣು": 5758,
      "ಬಾದ್": 5759,
      "ನಿಷೇ": 5760,
      "ತೆರಿಗೆ": 5761,
      "ವಿದ್ಯಾಲಯ": 5762,
      "ಿಸುತ್ತಿದ್ದ": 5763,
      "ಅನುಕೂಲ": 5764,
      "ಪೌ": 5765,
      "ವಿರುವ": 5766,
      "ಸಂಘಟನೆ": 5767,
      "ಲಾಗಿತ್ತು": 5768,
      "ಬೇಕಿದೆ": 5769,
      "ಜವಾ": 5770,
      "ರಬಹುದು": 5771,
      "ಂಟ್‌": 5772,
      "ವಿಸ್ತರ": 5773,
      "ಮಾಗ": 5774,
      "ಅಷ್ಟ": 5775,
      "ಬಹುತೇ": 5776,
      "ಸ್ವೀಕರ": 5777,
      "ಪುಟ್ಟ": 5778,
      "ಬಿಡುಗಡೆಯ": 5779,
      "ನೆಯಲ್ಲಿ": 5780,
      "ೊಬ್ಬರು": 5781,
      "27": 5782,
      "ಕರ್ಷ": 5783,
      "ವಿಶ್ವಾಸ": 5784,
      "ನಿಮಿಷ": 5785,
      "):": 5786,
      "ಚಿನ್ನ": 5787,
      "ಬೇಡಿಕೆ": 5788,
      "ಖಂಡ": 5789,
      "ಮದುವೆ": 5790,
      "ಬೆಂಗಳೂರಿನ": 5791,
      "ರಿಕೆಯ": 5792,
      "ಶೂ": 5793,
      "ಪಡಿಸಿ": 5794,
      "ಜಯ್": 5795,
      "ಳ್ಳು": 5796,
      "ಟ್ಸ್": 5797,
      "on": 5798,
      "ಯಂ": 5799,
      "ಉಗ್ರ": 5800,
      "ಮಾದರಿ": 5801,
      "ಿನ": 5802,
      "ಗಂಭೀ": 5803,
      "ೆಯು": 5804,
      "ಆಯೋಜ": 5805,
      "ಟಲ್": 5806,
      "ಡೌನ್": 5807,
      "ಶಾಲಾ": 5808,
      "ಪರಿಷ": 5809,
      "ಕೂಡಾ": 5810,
      "ಚಾಲನೆ": 5811,
      "ಾನುವಾರ": 5812,
      "ವಾಗಿತ್ತು": 5813,
      "ಪ್ರಶ್ನ": 5814,
      "ರಾಹುಲ್": 5815,
      "ಉಪಸ್ಥಿ": 5816,
      "ಕಲೆ": 5817,
      "ಬ್ರಹ್": 5818,
      "ಮೇಲಿನ": 5819,
      "ಮೂರ": 5820,
      "ಚರಣೆ": 5821,
      "ಬೇಕಾಗುತ್ತದೆ": 5822,
      "ಂತಾದ": 5823,
      "ವಿನ್ಯಾಸ": 5824,
      "ನೊ": 5825,
      "ನೀಡಲಾಗಿದೆ": 5826,
      "ಕುರಿತ": 5827,
      "ಕಚೇರಿ": 5828,
      "ಗೃಹ": 5829,
      "ಪ್ರಸಾ": 5830,
      "ತಕ್ಷಣ": 5831,
      "ಬೀಳ": 5832,
      "ಸ್ಟರ್": 5833,
      "ಇತಿಹಾಸ": 5834,
      "ಆ್ಯ": 5835,
      "ಅರಣ್ಯ": 5836,
      "ನಷ್ಟ": 5837,
      "ಭಾನುವಾರ": 5838,
      "ಮಾದರಿಯ": 5839,
      "ಸಮಾರಂಭ": 5840,
      "ಲ್ಕ": 5841,
      "ಕನ್ನಡಿ": 5842,
      "ಸಿಟಿ": 5843,
      "ಚ್‌": 5844,
      "ಟ್ವೀ": 5845,
      "ಮುಸ್": 5846,
      "ದಾಗಿದೆ": 5847,
      "ತಡೆಯ": 5848,
      "ಫಾರ್": 5849,
      "ಚರ್ಚ": 5850,
      "ತಿದ": 5851,
      "ಅಪಾಯ": 5852,
      "ಪರಿಗಣ": 5853,
      "ಅಭಿನಯ": 5854,
      "ಸುಧಾರ": 5855,
      "ಚಟುವಟಿಕೆ": 5856,
      "ಬಂಧಿ": 5857,
      "ಪಡೆಯಲು": 5858,
      "ಬ್ಬಿ": 5859,
      "ಚಿತ್ರದಲ್ಲಿ": 5860,
      "ಭೂಮಿ": 5861,
      "ಆನಂದ": 5862,
      "ಜ್‌": 5863,
      "ಎಲ್ಲರೂ": 5864,
      "ವಾಗಲಿದೆ": 5865,
      "ಪ್ರದೇಶದ": 5866,
      "ಹೃದಯ": 5867,
      "ವಿಜ್ಞಾನ": 5868,
      "ಕರ್ನಾಟಕದ": 5869,
      "ಮಾಡಿಕೊಂಡ": 5870,
      "ಸಂಬಂಧಿಸಿದಂತೆ": 5871,
      "ಲ್ಲದೆ": 5872,
      "ಔಷ": 5873,
      "ಮ್ಯ": 5874,
      "ಅಕ್ರಮ": 5875,
      "ಬಹಿ": 5876,
      "ಕ್ರಿಕೆಟ್": 5877,
      "ನಿನ": 5878,
      "ಚೀನಾ": 5879,
      "ದಶ": 5880,
      "ಸಾಮಾನ್ಯವಾಗಿ": 5881,
      "ೆಯೂ": 5882,
      "ಚಕ್ರ": 5883,
      "ಾರೋ": 5884,
      "ಬದುಕ": 5885,
      "ಳದ": 5886,
      "ಆದರೂ": 5887,
      "ಮನೋ": 5888,
      "st": 5889,
      "ಜಿನ": 5890,
      "ಹಿಡಿದು": 5891,
      "ಗ್ರಾಮೀ": 5892,
      "ಅಧಿಕ": 5893,
      "ಧ್ವ": 5894,
      "ಅಡಿ": 5895,
      "ಮಾಪ": 5896,
      "ಇತ್ತೀಚೆಗೆ": 5897,
      "ಚಾರ್": 5898,
      "ಂತು": 5899,
      "ಿರಿ": 5900,
      "ನೀಯ": 5901,
      "ಹಾಜ": 5902,
      "ಜವಾಬ್ದ": 5903,
      "ಅಪ್ಪ": 5904,
      "ಿಯಾದ": 5905,
      "ಜತೆಗೆ": 5906,
      "ಗೊತ್ತಿ": 5907,
      "ುತ್ತಿತ್ತು": 5908,
      "ವಾಗುವ": 5909,
      "ಹಿಂದಿ": 5910,
      "ಚೆನ್ನಾಗಿ": 5911,
      "ಲಕ್ಷಣ": 5912,
      "ಕೆಗೆ": 5913,
      "ವಿಚಾರಣೆ": 5914,
      "ಸ್ಟೇ": 5915,
      "ಮುಂತಾದ": 5916,
      "ಪ್ರವಾ": 5917,
      "ಘ್ರ": 5918,
      "ಸರಳ": 5919,
      "ವಿದ್ಯುತ್": 5920,
      "ಹುಟ್ಟ": 5921,
      "ಮಾಡಿರುವ": 5922,
      "ಪ್ರಯಾ": 5923,
      "ಗೆಲ್ಲ": 5924,
      "ಅದ್": 5925,
      "ಅಷ್ಟೇ": 5926,
      "ಕಾರ್ಯನಿರ್ವಹ": 5927,
      "li": 5928,
      "ಮೀಸ": 5929,
      "ಾಪುರ": 5930,
      "ಉಪಾ": 5931,
      "ಗಿರಿ": 5932,
      "ವಸ": 5933,
      "ಸವಾ": 5934,
      "ತಾಯ": 5935,
      "ಂತ್ರಿ": 5936,
      "ಥಿ": 5937,
      "ಜಾತಿ": 5938,
      "ನಡು": 5939,
      "ನಿಟ್ಟಿನಲ್ಲಿ": 5940,
      "ಂಡರ್": 5941,
      "ಪ್ರಸ್ತಾ": 5942,
      "ಸಾಧನೆ": 5943,
      "ರಾಧ": 5944,
      "ನದಿ": 5945,
      "ಕಪ್": 5946,
      "ಫು": 5947,
      "ಸಮ್ಮ": 5948,
      "ವೈರ": 5949,
      "ಇಂಥ": 5950,
      "60": 5951,
      "ಶೀಘ್ರ": 5952,
      "ಸಾಧ್ಯವಿಲ್ಲ": 5953,
      "ವೆಂಕ": 5954,
      "ರುತ್ತವೆ": 5955,
      "ಇನ್ನಷ್ಟು": 5956,
      "ತನಿಖೆ": 5957,
      "ಣಿಕ": 5958,
      "ಅಂತಹ": 5959,
      "ಪ್ರೀತಿ": 5960,
      "ಇನ್ನೊಂದು": 5961,
      "ಲುವು": 5962,
      "ಿಸಿಕೊಳ್ಳಲು": 5963,
      "ಸೋಂಕಿ": 5964,
      "ಪುನ": 5965,
      "ಕಾಗ": 5966,
      "ಭಾರೀ": 5967,
      "ಕಡಿಮೆಯ": 5968,
      "ಧಿಕಾರ": 5969,
      "ದಿರುವ": 5970,
      "ಂಬು": 5971,
      "ಮುತ್ತ": 5972,
      "ಬೆಳಗ್ಗೆ": 5973,
      "er": 5974,
      "ವೈದ್ಯಕೀಯ": 5975,
      "ಿದು": 5976,
      "ನೊಂದಿಗೆ": 5977,
      "ಸಿಸಿ": 5978,
      "ಬಹುತೇಕ": 5979,
      "ಲಿನಲ್ಲಿ": 5980,
      "ಪ್ರಥ": 5981,
      "ಆತನ": 5982,
      "ತೆರಳ": 5983,
      "ಡಿಯೊ": 5984,
      "ದ್ವಿ": 5985,
      "ರೊಂದಿಗೆ": 5986,
      "ಅನುದಾನ": 5987,
      "ಪ್ರತ್ಯೇ": 5988,
      "ತರಬೇತಿ": 5989,
      "ಜಾಗೃ": 5990,
      "ತಜ್ಞ": 5991,
      "ಸಮಾಧಾನ": 5992,
      "ಬೆಳಿ": 5993,
      "2019": 5994,
      "ಮೊತ್ತ": 5995,
      "ಸಂತೋಷ": 5996,
      "ಕೇಳಿದ": 5997,
      "ಂಜಿ": 5998,
      "ಭರವಸೆ": 5999,
      "ೇಂದ್ರ": 6000,
      "ಆರು": 6001,
      "ಕೋಟ": 6002,
      "ಕಲ್ಯಾಣ": 6003,
      "ಧನ್ಯ": 6004,
      "ಹಕ್ಕು": 6005,
      "ಇವ": 6006,
      "ಸಾರ್ವಜನಿ": 6007,
      "ಲಿದ್ದು": 6008,
      "ನಿಲ್ದಾಣ": 6009,
      "ಹಿಡಿಯ": 6010,
      "ou": 6011,
      "ವೆಂದು": 6012,
      "ಉಪಸ್ಥಿತರ": 6013,
      "ಮಾಡ್": 6014,
      "ಸಿಬಿ": 6015,
      "ಮಂದಿರ": 6016,
      "ಬಾರಿಗೆ": 6017,
      "ಏಕೆಂದರೆ": 6018,
      "ಆದಾಯ": 6019,
      "ಸಂದೇಶ": 6020,
      "ಯೆ": 6021,
      "ಉಚಿತ": 6022,
      "ಬ್ಬರ": 6023,
      "ಗರು": 6024,
      "ಶ್ವ": 6025,
      "ನಾಡು": 6026,
      "ಬಹುದಾದ": 6027,
      "ಗಳನ್ನ": 6028,
      "ಕ್ಷನ್": 6029,
      "ಕೊಳ": 6030,
      "ಪೀಠ": 6031,
      "ಹಳ್ಳ": 6032,
      "ಬೆಳಿಗ್ಗೆ": 6033,
      "ಗುರಿ": 6034,
      "ಸಂಪ": 6035,
      "ನವೀ": 6036,
      "ಲಿಕ್": 6037,
      "ಕೊಲೆ": 6038,
      "ಕಂ": 6039,
      "ಹಾಡು": 6040,
      "ಮಧ್ಯೆ": 6041,
      "ಾಗಿಲ್ಲ": 6042,
      "ಆಯ್ಕೆಯ": 6043,
      "ಸ್ಮಾರ್": 6044,
      "ಇರುತ್ತದೆ": 6045,
      "ಅಂತ್ಯ": 6046,
      "ತಪ್ಪು": 6047,
      "ಬಳಕೆದಾರ": 6048,
      "ಸದಸ್ಯರು": 6049,
      "ರುಗ": 6050,
      "ನಿಷೇಧ": 6051,
      "ದೀಪ್": 6052,
      "ಿಯು": 6053,
      "ತ್ರಾ": 6054,
      "ನೋವು": 6055,
      "ುವುದನ್ನು": 6056,
      "ಅಕ್ಷ": 6057,
      "ಸೇವಾ": 6058,
      "ಲಿಯಾ": 6059,
      "ನಿರಂತರ": 6060,
      "ಗ್ಯಾ": 6061,
      "ಉನ್ನ": 6062,
      "ಿಸಲಾಗಿತ್ತು": 6063,
      "ಇಂದಿ": 6064,
      "ಆಧಾರ": 6065,
      "ಬರಹ": 6066,
      "ಘಾಟ": 6067,
      "ಆಕರ್ಷ": 6068,
      "ಸ್ತುವ": 6069,
      "ರೈಲ್": 6070,
      "ವತಿಯಿಂದ": 6071,
      "29": 6072,
      "ಜನಪ್ರಿಯ": 6073,
      "ವೈರಸ್": 6074,
      "ಸ್ನೇಹಿ": 6075,
      "ನವೆ": 6076,
      "ಗೊಳಿಸಲು": 6077,
      "ಸೂರ್ಯ": 6078,
      "ಬೂ": 6079,
      "ಸಾವು": 6080,
      "ತೀರ್ಮಾನ": 6081,
      "ರಿದು": 6082,
      "ನಡೆಯಲಿದೆ": 6083,
      "ಪತ್ತೆ": 6084,
      "ಖಾನ್": 6085,
      "ಅದರಲ್ಲಿ": 6086,
      "ನಿಗದಿ": 6087,
      "ವೇರಿ": 6088,
      ").": 6089,
      "ಸ್ವಯಂ": 6090,
      "ಅವನು": 6091,
      "ಸಂಪುಟ": 6092,
      "ವಚ": 6093,
      "ಸ್ವಾತಂತ್": 6094,
      "ವರೂ": 6095,
      "ಜುಲೈ": 6096,
      "ನಿವಾಸ": 6097,
      "ರೆಗೆ": 6098,
      "ಮಯ": 6099,
      "ತಾಲೂಕು": 6100,
      "ಅನ್ನೋ": 6101,
      "ಬೇಕಿ": 6102,
      "ಟರಿ": 6103,
      "ಮಿತ": 6104,
      "ಪಂಚಾಯಿ": 6105,
      "ಭಾಗದಲ್ಲಿ": 6106,
      "ಗೈ": 6107,
      "ಅಭಿವೃದ್ಧ": 6108,
      "ಪ್ರತಿಕ್ರಿಯ": 6109,
      "ಕಾಶ್ಮೀ": 6110,
      "ಶ್ಚಿ": 6111,
      "ಇತ್ತೀಚಿ": 6112,
      "ಗಡಿ": 6113,
      "ಉಪಸ್ಥಿತರಿದ್ದರು": 6114,
      "ಕುಟುಂಬದ": 6115,
      "ಮಹಾರಾಷ್ಟ್ರ": 6116,
      "ಸಂಭ್ರಮ": 6117,
      "ಎನ್ನುವುದು": 6118,
      "ಆಸ್ಪತ್ರೆಗೆ": 6119,
      "ಹೆಚ್ಚಾಗಿ": 6120,
      "ಕಿರು": 6121,
      "ಸರಾ": 6122,
      "ವೊಂದ": 6123,
      "ಗೆದ್ದ": 6124,
      "ಉದ್ಘಾಟ": 6125,
      "ಲ್ಡ್": 6126,
      "ಿಸಿದಾಗ": 6127,
      "ಚಲನ": 6128,
      "ಪತ್ನಿ": 6129,
      "ಆಫ": 6130,
      "ಹರ್": 6131,
      "ಗ್ರಾಮೀಣ": 6132,
      "ತ್ವದಲ್ಲಿ": 6133,
      "ಸದಾ": 6134,
      "ಡಿಸೆ": 6135,
      "ಕುಲ": 6136,
      "ಅಲ್": 6137,
      "ಹೆಸರಿ": 6138,
      "ಮರೆ": 6139,
      "ಪ್ರಯೋಜನ": 6140,
      "tha": 6141,
      "ಬೆಳಗಾವಿ": 6142,
      "ಮೋಹ": 6143,
      "ಂದ್ರೆ": 6144,
      "ಅವಳ": 6145,
      "ಗಳಿಗೂ": 6146,
      "ಬಾಗಿ": 6147,
      "ಗಾದ": 6148,
      "ಬಜೆ": 6149,
      "ಕಟ್ಟು": 6150,
      "ಪಂಚಾಯ": 6151,
      "ಗಡೆ": 6152,
      "ವರ್ಷಗಳಿಂದ": 6153,
      "ಶರ್": 6154,
      "ಭಾರತಿ": 6155,
      "ಕುಮಾರ್‌": 6156,
      "ಶಿಯ": 6157,
      "ಿಸಿವೆ": 6158,
      "ಘಟ": 6159,
      "ಆಯೋಗ": 6160,
      "ಹಣಕಾ": 6161,
      "ಗರಿ": 6162,
      "ಬಾಲಿ": 6163,
      "ನೂರ": 6164,
      "ಬರುತ್ತದೆ": 6165,
      "ಧನ್ಯವಾದ": 6166,
      "ಅವಶ್ಯ": 6167,
      "ಸ್ನಾ": 6168,
      "ಷ್ಯಾ": 6169,
      "ಪ್ರಭು": 6170,
      "ಲ್ಲಿದೆ": 6171,
      "್ಯಾಸ": 6172,
      "ಖಚಿತ": 6173,
      "ಅನಿ": 6174,
      "ುತ್ತಾನೆ": 6175,
      "ಬಲಿ": 6176,
      "ವಾಸ್ತ": 6177,
      "ುತ್ತೆ": 6178,
      "ರಕ್ಷಣೆ": 6179,
      "ಪ್ರತಿಕ್ರಿಯೆ": 6180,
      "ನ್ಸಿ": 6181,
      "ಹೊಡೆ": 6182,
      "್ರು": 6183,
      "or": 6184,
      "ಹೋಗುವ": 6185,
      "ಮತ್ತಷ್ಟು": 6186,
      "ಮಂಡ್ಯ": 6187,
      "ಅವಧಿಯಲ್ಲಿ": 6188,
      "ಸ್ಕ್": 6189,
      "ಪತ್ತೆಯ": 6190,
      "ತೆಯಲ್ಲಿ": 6191,
      "ವಿವಾದ": 6192,
      "ಸಿಕ್ಕಿ": 6193,
      "ಮಾನ್": 6194,
      "ಸ್ಟೋ": 6195,
      "್ಯತೆ": 6196,
      "ಇಟ್ಟು": 6197,
      "ಭಾರಿ": 6198,
      "ಕಾರ್ಮಿ": 6199,
      "ಸುಂದರ": 6200,
      "ಕರ್‌": 6201,
      "ore": 6202,
      "ದೃಶ್ಯ": 6203,
      "ಕ್ರೋಶ": 6204,
      "ಪ್ರಾಥ": 6205,
      "ಅಳವಡ": 6206,
      "ಫ್ಯಾ": 6207,
      "ಗಿಡ": 6208,
      "ವಾಗಿರುವ": 6209,
      "ಹೊರತು": 6210,
      "ಪೋರ್": 6211,
      "ೆಡೆ": 6212,
      "ದಾರಿ": 6213,
      "ಬುಕ್": 6214,
      "ಎಂದಿದ್ದಾರೆ": 6215,
      "ಿಸುತ್ತೇನೆ": 6216,
      "ಕೊಡುವ": 6217,
      "ಬಲ್ಲ": 6218,
      "ನಮ": 6219,
      "ಪಕ್ಕ": 6220,
      "ಮರಣ": 6221,
      "ಯುದ್ಧ": 6222,
      "ಸೆಪ್": 6223,
      "ತೆರೆಯ": 6224,
      "ಣ್ಣಿನ": 6225,
      "ಕಣ್ಣು": 6226,
      "ರಕ": 6227,
      "ತರೆ": 6228,
      "ಶೇಖ": 6229,
      "ಶಿವಮೊ": 6230,
      "ಪ್ರಜಾ": 6231,
      "ಕೊಂಡಿದೆ": 6232,
      "ಡೈ": 6233,
      "ಜನಾ": 6234,
      "ನಾಯಕರು": 6235,
      "ವ್‌": 6236,
      "ಬಹಿರಂಗ": 6237,
      "ಗಲ್": 6238,
      "ಟಿವಿ": 6239,
      "ವಾಹಿ": 6240,
      "ೋತ್ಸವ": 6241,
      "ಸರಿಯಾಗಿ": 6242,
      "2020": 6243,
      "ಯಂತ್ರ": 6244,
      "ಎಫ್‌": 6245,
      "ರಿತ": 6246,
      "ತೊಂದರೆ": 6247,
      "ಕೊಡುಗೆ": 6248,
      "ಡಲು": 6249,
      "ದೊರೆಯ": 6250,
      "ಖರೀದಿ": 6251,
      "80": 6252,
      "ಹಣ್ಣು": 6253,
      "ಮಂಡಳಿ": 6254,
      "ಊಟ": 6255,
      "ನಾಶ": 6256,
      "ಬಿಜೆಪಿಯ": 6257,
      "ಬದ್ಧ": 6258,
      "ಸೈಟ್": 6259,
      "ಪ್ರಥಮ": 6260,
      "ಕಾಳ": 6261,
      "ಜೀವಿ": 6262,
      "ಆಕ್ರೋಶ": 6263,
      "ಮೈಸೂ": 6264,
      "ನೀತಿ": 6265,
      "ಶಿವಮೊಗ್ಗ": 6266,
      "ನೀಡಬೇಕು": 6267,
      "ಬಂಧನ": 6268,
      "ಜ್ಜ": 6269,
      "ಬಹುದಾಗಿದೆ": 6270,
      "ಅರ್ಧ": 6271,
      "ಮಾಡುತ್ತಿದ್ದಾರೆ": 6272,
      "ಬಿಜೆಪ": 6273,
      "ಿಸುತ್ತೇವೆ": 6274,
      "ಕೆಲವ": 6275,
      "ಕನಿಷ್ಠ": 6276,
      "ಎಲ್ಲರ": 6277,
      "ಭವನ": 6278,
      "ಣ್ಯ": 6279,
      "ಹಿಂದು": 6280,
      "ಸಂಕಷ್ಟ": 6281,
      "ಅಕ್ಟೋ": 6282,
      "ವಿಶ್ವವಿದ್ಯಾಲಯ": 6283,
      "ಪ್ರಾಥಮಿಕ": 6284,
      "ಗಳಿಗಾಗಿ": 6285,
      "ಕುತೂ": 6286,
      "ಸ್ವಚ್ಛ": 6287,
      "ಕೂಡಲೇ": 6288,
      "ಸ್ವಾಮೀ": 6289,
      "ನ್ಯೂಸ್": 6290,
      "ಸುರೇ": 6291,
      "ನಾಮೆ": 6292,
      "ಚಾರ್ಯ": 6293,
      "ಮದುವೆಯ": 6294,
      "ಕೊನೆ": 6295,
      "ಪ್ರೆ": 6296,
      "ಹಳೆಯ": 6297,
      "ತಾವು": 6298,
      "ಪ್ರತಿಭಟ": 6299,
      "ವೇದ": 6300,
      "ಐಪಿ": 6301,
      "ನಿತ್ಯ": 6302,
      "ಹಿಂ": 6303,
      "Re": 6304,
      "ೊಳ": 6305,
      "ಲಿಕೇ": 6306,
      "ಹ್ನ": 6307,
      "ಏಪ್ರಿ": 6308,
      "ಸಲ್": 6309,
      "ಸ್ವಾತಂತ್ರ್ಯ": 6310,
      "ರಕ್ಷಣಾ": 6311,
      "al": 6312,
      "ನ್‌ನಲ್ಲಿ": 6313,
      "ಅದ್ಭು": 6314,
      "ನೆಲ": 6315,
      "ಇಲ್ಲಿದೆ": 6316,
      "ಭಕ್ತ": 6317,
      "ಇಲ್ಲದ": 6318,
      "ಹೆಣ್ಣು": 6319,
      "ಆನ್": 6320,
      "ಪೈಕಿ": 6321,
      "ಕುತೂಹಲ": 6322,
      "ಗೊಳಿಸುವ": 6323,
      "ಮರೆಯ": 6324,
      "ಕ್ಷೆ": 6325,
      "ಸಾಧ್ಯವಾಗ": 6326,
      "ಾದರೆ": 6327,
      "ಕುಳಿ": 6328,
      "ತ್ಯಾದಿ": 6329,
      "ಉದಾಹರ": 6330,
      "ಅಮ್ಮ": 6331,
      "ಡರ್": 6332,
      "ಶರಣ": 6333,
      "ಸಿಂಹ": 6334,
      "ಸಾಯ": 6335,
      "ಅಭಿಯ": 6336,
      "ಮಧು": 6337,
      "ಟ್‌ನಲ್ಲಿ": 6338,
      "ವಾದಿ": 6339,
      "ವರದ": 6340,
      "ಡಳಿತ": 6341,
      "ಪಟ್ಟಣ": 6342,
      "ಟ್ವಿ": 6343,
      "ನಂ": 6344,
      "ಘೋಷಣೆ": 6345,
      "ಕುಂದ": 6346,
      "ಕೆಲವರು": 6347,
      "ಸ್ಟ್ರೇ": 6348,
      "ನಾಯ್": 6349,
      "ಸಾರಿಗೆ": 6350,
      "ಿಸುತ್ತವೆ": 6351,
      "ಬೃಹ": 6352,
      "ಕ್ಕೇ": 6353,
      "ಕ್ಯ": 6354,
      "ಲೆಂಡ್": 6355,
      "ರೆಡ್ಡಿ": 6356,
      "ಕೊಂಡಿದ್ದ": 6357,
      "ಕನ್ನಡದ": 6358,
      "hara": 6359,
      "ಮಹಿಳೆ": 6360,
      "ಕ್ಟರ್": 6361,
      "ದೆಹಲ": 6362,
      "ಪುರಾ": 6363,
      "ನ್ಸ್‌": 6364,
      "ಪದವಿ": 6365,
      "ಲ್ಸ್": 6366,
      "ಗೊಳಿಸಿ": 6367,
      "ರುವುದನ್ನು": 6368,
      "ಮಾಡಿದರೆ": 6369,
      "‍ನಲ್ಲಿ": 6370,
      "ತಕ್ಕ": 6371,
      "ಅಧಿಕಾರಿಗಳ": 6372,
      "ಂಕಿ": 6373,
      "ುವುದೇ": 6374,
      "ಚಿತ್ರರಂಗ": 6375,
      "ಅನುಸರ": 6376,
      "ಮತದಾರ": 6377,
      "ನಿಯಾ": 6378,
      "ಅಂದು": 6379,
      "ಗಂಡ": 6380,
      "ರವರೆಗೆ": 6381,
      "ವೇಷ": 6382,
      "ಪುತ್ರ": 6383,
      "ನಾಡಿನ": 6384,
      "ಧೋ": 6385,
      "ಜೂನ್": 6386,
      "ಬದಲಾಯಿಸಿ": 6387,
      "ಮಧ್ಯಾ": 6388,
      "ನಡೆಯಿತು": 6389,
      "ದಾಗಿ": 6390,
      "ವೈಯ": 6391,
      "ಸಚಿವರು": 6392,
      "ಗೊಂಡು": 6393,
      "2018": 6394,
      "ಪಂದ್ಯದಲ್ಲಿ": 6395,
      "ಮತದಾನ": 6396,
      "ಜನ್ಮ": 6397,
      "ನೋಂದ": 6398,
      "ಮಾಲೀ": 6399,
      "ಎಲ್ಲರಿಗೂ": 6400,
      ".[": 6401,
      "ಜಾರಿಗೆ": 6402,
      "ಕಾಲದಲ್ಲಿ": 6403,
      "ಇಂದಿನ": 6404,
      "ಖಿ": 6405,
      "ವಾತಾ": 6406,
      "ಅನಾ": 6407,
      "ಬೆಟ್ಟ": 6408,
      "ಮಾತ್ರವಲ್ಲ": 6409,
      "ದೀರ್": 6410,
      "ಪೆಟ್ರೋ": 6411,
      "ಉನ್ನತ": 6412,
      "ಥಾ": 6413,
      "ಕಾರ್ಡ್": 6414,
      "70": 6415,
      "ನೆಲೆ": 6416,
      "ಖಾತೆ": 6417,
      "ನೀಡುತ್ತದೆ": 6418,
      "ಮಾರಿ": 6419,
      "ದಿಂದಾಗಿ": 6420,
      "ಮಾಡುತ್ತಿದ್ದ": 6421,
      "ಬಿಗ್": 6422,
      "ನಡೆಯುವ": 6423,
      "ಕಲಾವಿದ": 6424,
      "ಪ್ರವಾಸ": 6425,
      "ಎಚ್ಚರಿಕೆ": 6426,
      "ಸಹಜ": 6427,
      "ಮೂರನೇ": 6428,
      "ರಲಿ": 6429,
      "ಮೃತಪಟ್ಟ": 6430,
      "ನೆನಪ": 6431,
      "ಮಂತ": 6432,
      "ವೆಂದರೆ": 6433,
      "ವಾಲ್": 6434,
      "ಡ್ಡಾಯ": 6435,
      "ಂಬೆ": 6436,
      "ಮಕ": 6437,
      "ಸಿನಿಮಾಗ": 6438,
      "ವಾರ್ತಾ": 6439,
      "ನೌಕರ": 6440,
      "ಇತ್ಯಾದಿ": 6441,
      "ಬೇಗ": 6442,
      "ದೀಪ": 6443,
      "ವತಿ": 6444,
      "ಹಚ್ಚ": 6445,
      "ಚಾರಿ": 6446,
      "ಬೈಕ್": 6447,
      "ಕೋಟೆ": 6448,
      "ಬೇಕಾಗಿದೆ": 6449,
      "ತೋಟ": 6450,
      "ಶುಭ": 6451,
      "ಉಪಯೋಗ": 6452,
      "ಭಾವನೆ": 6453,
      "ಪಾಠ": 6454,
      "ಪಂಚಾಯಿತಿ": 6455,
      "ನಡುವಿನ": 6456,
      "ಕನಸು": 6457,
      "ೇಳ": 6458,
      "ಕಡ್ಡಾಯ": 6459,
      "ಬಿಡಿ": 6460,
      "ಹೇಳಿದೆ": 6461,
      "ನಾಗಿ": 6462,
      "ಗಿರುವ": 6463,
      "ಪಡಿ": 6464,
      "ಅಪ್ಲಿಕೇ": 6465,
      "ಚೌ": 6466,
      "ಒಮ್ಮೆ": 6467,
      "ವಕೀ": 6468,
      "ಕ್ಲ": 6469,
      "ಫ್ರ": 6470,
      "ಕಿಯ": 6471,
      "ಸೆಯ": 6472,
      "ಂಪ್": 6473,
      "ರಸ": 6474,
      "ಆನ್‌": 6475,
      "ತಂಗ": 6476,
      "ಬಾಗ": 6477,
      "ಆಹ್": 6478,
      "vi": 6479,
      "ಕಾಪಾ": 6480,
      "ಯೋಚ": 6481,
      "ಾರ್‌": 6482,
      "ಗಣಿ": 6483,
      "35": 6484,
      "ಅಂಗಡಿ": 6485,
      "ನೀಡಿರುವ": 6486,
      "31": 6487,
      "ಜೀವನದಲ್ಲಿ": 6488,
      "ಷ್ಠಾನ": 6489,
      "ಅವುಗಳನ್ನು": 6490,
      "ಹುಟ್ಟು": 6491,
      "ದಲ್ಲಿದೆ": 6492,
      "ಸ್ರ": 6493,
      "ಕ್ರಿಕೆ": 6494,
      "ಆವರ": 6495,
      "ತಃ": 6496,
      "ನೀನು": 6497,
      "ಆದ್ರೆ": 6498,
      "ಸಾಕ್ಷ": 6499,
      "ರಾಜೀನಾಮೆ": 6500,
      "ದೇವಿ": 6501,
      "ಮತ್ತಿ": 6502,
      "ನಾಯಕರ": 6503,
      "ವರ್‌": 6504,
      "ದೇವೇ": 6505,
      "ಧಾರ್ಮಿಕ": 6506,
      "ುವುದರಿಂದ": 6507,
      "ತಂದು": 6508,
      "ಹಾನಿ": 6509,
      "ಧಾರಿ": 6510,
      "ಣೆಯನ್ನು": 6511,
      "ಮಟ್ಟದಲ್ಲಿ": 6512,
      "ಿಸಲಿದೆ": 6513,
      "ಿದೆಯ": 6514,
      "ನಿವಾಸಿ": 6515,
      "ಮೂಲದ": 6516,
      "ನನ್ನನ್ನು": 6517,
      "ಆಸ್ತಿ": 6518,
      "ಮಗಳ": 6519,
      "ವೈಯಕ್ತಿ": 6520,
      "ಎಲೆಕ್": 6521,
      "ಹುಬ್ಬ": 6522,
      "ಜನರನ್ನು": 6523,
      "ಹಾಗೆಯೇ": 6524,
      "AN": 6525,
      "ಭಟ್": 6526,
      "ಹೆಚ್ಚಳ": 6527,
      "ಜನವರಿ": 6528,
      "ಯಾರೂ": 6529,
      "ಶಾಸಕರು": 6530,
      "ತಿಳಿಸಿದೆ": 6531,
      "ಕೊಹ್": 6532,
      "ಮಾರ್ಚ್": 6533,
      "ೊಳಗೆ": 6534,
      "ುತ್ತಲೇ": 6535,
      "ಡಿಯಾ": 6536,
      "ಮಾಡಿದ್ದು": 6537,
      "ಅಪಘಾತ": 6538,
      "ಕೊರತೆ": 6539,
      "ಉಲ್ಲೇ": 6540,
      "ಕಿನಲ್ಲಿ": 6541,
      "ಪ್ರತ್ಯೇಕ": 6542,
      "ಗರ್ಭ": 6543,
      "ರದ್ದು": 6544,
      "ಿಸುವುದಿಲ್ಲ": 6545,
      "ವಿದ್ಯಾರ್ಥಿಗಳಿಗೆ": 6546,
      "ಸಂಸ್ಕೃತಿ": 6547,
      "ಇತ್ತು": 6548,
      "ಟ್ವೀಟ್": 6549,
      "ಮಾರುಕಟ್ಟೆ": 6550,
      "Var": 6551,
      "ಉಪಾಧ್ಯಕ್ಷ": 6552,
      "ಅಮಿ": 6553,
      "ಷಿಯ": 6554,
      "ಉಲ್ಲೇಖ": 6555,
      "ಪ್ರತಿಯೊಬ್ಬ": 6556,
      "ಕಾಮ": 6557,
      "ವಳ": 6558,
      "ಶೀರ್": 6559,
      "ಬೆಂಗಳೂರಿನಲ್ಲಿ": 6560,
      "ಹಾಗು": 6561,
      "ಅನುಮತಿ": 6562,
      "ಕಂಪೆ": 6563,
      "500": 6564,
      "ಖ್ಯಾತ": 6565,
      "ಅದ್ಭುತ": 6566,
      "ಹೆಚ್ಚುವರಿ": 6567,
      "ಹಾಕಿದ": 6568,
      "ಪ್ರಸಾದ್": 6569,
      "ವಿಭಿನ್ನ": 6570,
      "ಕಾಡ": 6571,
      "ಮಿಶ್ರ": 6572,
      "ರ್ಪ": 6573,
      "ಗೆಲುವು": 6574,
      "ವಸತಿ": 6575,
      "harati": 6576,
      "Vartha": 6577,
      "ಯಶಸ್ವಿಯ": 6578,
      "ಪ್ರತಿನಿಧಿ": 6579,
      "ಅಲ್ಲದೇ": 6580,
      "ಮಹೇ": 6581,
      "ಹಣವನ್ನು": 6582,
      "ಿಸಿಸಿ": 6583,
      "ಪಶ್ಚಿ": 6584,
      "ಚರಣ": 6585,
      "ಹಮ್ಮಿ": 6586,
      "ಬೆನ್ನ": 6587,
      "ಕಳ್ಳ": 6588,
      "ಆಟೋ": 6589,
      "ಲಾಗಿದ್ದು": 6590,
      "ನಡೆಸಲು": 6591,
      "ಲಿವೆ": 6592,
      "ಣ್ಣೆ": 6593,
      "ಪ್ರಾಣಿ": 6594,
      "ಕಾರಣಕ್ಕೆ": 6595,
      "ಸಾಧನ": 6596,
      "ಅಭಿಯಾನ": 6597,
      "ಖಂಡಿ": 6598,
      "ಸಂಪೂರ್ಣವಾಗಿ": 6599,
      "ಫಾರ": 6600,
      "ಭಾಗಿ": 6601,
      "ಹವಾ": 6602,
      "ತುರ್": 6603,
      "ಮಣಿ": 6604,
      "ಪೇಟೆ": 6605,
      "ದಿನಾಂಕ": 6606,
      "ವಕೀಲ": 6607,
      "ಶಾಲೆಯ": 6608,
      "ಅಂಕ": 6609,
      "ತೆಯಿಂದ": 6610,
      "ಹತ್ತು": 6611,
      "ನವೆಂಬರ್": 6612,
      "ಹತ್ತಿರ": 6613,
      "ಂತ್ರಿಕ": 6614,
      "ಕೊಪ್ಪ": 6615,
      "ನೇರ": 6616,
      "ತಿನ": 6617,
      "ತದ": 6618,
      "ಮೈತ್ರಿ": 6619,
      "ಪ್ರಕ್ರಿಯೆ": 6620,
      "ಗಾಲ": 6621,
      "ಕೋರ": 6622,
      "ಿದ್ದವು": 6623,
      "2021": 6624,
      "ಂತೆಯೇ": 6625,
      "ಸಮುದ್ರ": 6626,
      "ಹದ": 6627,
      "ಎನ್ನುತ್ತಾರೆ": 6628,
      "ಉದ್ಯಮ": 6629,
      "ಮಾಯ": 6630,
      "ಭರ": 6631,
      "ಸಿಲು": 6632,
      "ಮುಂ": 6633,
      "ಪಠ": 6634,
      "ವನು": 6635,
      "ಗೊಂದ": 6636,
      "ಮಾತಾ": 6637,
      "ರಡು": 6638,
      "ಬಯಸ": 6639,
      "ಪೋಸ್ಟ್": 6640,
      "45": 6641,
      "ಡಿಜಿ": 6642,
      "ವಾಡಿ": 6643,
      "ಲಾಕ್‌": 6644,
      "ಕೂದ": 6645,
      "ವಿಕ": 6646,
      "ನೆಟ್": 6647,
      ".\"": 6648,
      "ಶಾಸಕರ": 6649,
      "ಇದನ್ನೂ": 6650,
      "ಟೆಸ್ಟ್": 6651,
      "ುತ್ತಿರುವುದು": 6652,
      "ಮುಖ್ಯಸ್ಥ": 6653,
      "ಯ್ದ": 6654,
      "ಎಸ್‍": 6655,
      "ೆಲ್ಲ": 6656,
      "ಜ್ಜೆ": 6657,
      "ಧುನಿಕ": 6658,
      "ಾರ್ಹ": 6659,
      "ಕೆಟ್ಟ": 6660,
      "ಿಸಲಿದ್ದಾರೆ": 6661,
      "ನಿರ್ಣ": 6662,
      "ಪ್ರಭಾ": 6663,
      "ವಚನ": 6664,
      "ಸರಿಯಾದ": 6665,
      "ಗಳನ್ನೂ": 6666,
      "ಹೂಡಿಕೆ": 6667,
      "ಬಿಎಂ": 6668,
      "ಪ್ಲೇ": 6669,
      "ಉಸ್ತುವ": 6670,
      "ಜರಾ": 6671,
      "ಸಹಾಯಕ": 6672,
      "ಹುದ್ದೆ": 6673,
      "ಕುಡಿಯುವ": 6674,
      "ಅಲೆ": 6675,
      "ನಿಯಲ್ಲಿ": 6676,
      "ಸರ್ಕಾರಕ್ಕೆ": 6677,
      "ತಾಲ್ಲೂಕು": 6678,
      "ತಾರೆ": 6679,
      "ವಿದೇ": 6680,
      "199": 6681,
      "ಬದುಕು": 6682,
      "ಹೊತ್ತ": 6683,
      "ಿಸಲಾಗುತ್ತಿದೆ": 6684,
      "ಕೋರ್ಟ್‌": 6685,
      "ನಾಯಿ": 6686,
      "ಡಿಸೆಂಬರ್": 6687,
      "ಪೊಲೀಸರ": 6688,
      "ೇಯ": 6689,
      "ಸೆಪ್ಟೆ": 6690,
      "ಪ್ರಭಾವ": 6691,
      "ಗ್ರಾಮದಲ್ಲಿ": 6692,
      "ಶಾಂತಿ": 6693,
      "ಹತ್ತ": 6694,
      "ಮಹಿಳೆಯರು": 6695,
      "ನಿರೂಪ": 6696,
      "ರೆದ": 6697,
      "ಪ್ರಯಾಣಿ": 6698,
      "ರೈತರಿಗೆ": 6699,
      "ಸುದ್ದ": 6700,
      "ಕಲಿಯ": 6701,
      "ಕಲ್ಲು": 6702,
      "ದುರ್ಗ": 6703,
      "ಿಯೇ": 6704,
      "ಪಾಟೀಲ": 6705,
      "ರಾಜ್‌": 6706,
      "ಸಮರ್ಥ": 6707,
      "ವ್ಯಕ್ತಪಡಿಸಿದರು": 6708,
      "ಇದ್ದರು": 6709,
      "ಇದ್ದು": 6710,
      "ತಾನು": 6711,
      "ಹಾಲು": 6712,
      "ವಿಧಾನಸಭಾ": 6713,
      "ಸಿಕ್": 6714,
      "ಪಶ್ಚಿಮ": 6715,
      "ಂಗೆ": 6716,
      "ಹೋಟೆ": 6717,
      "ನವರ": 6718,
      "ಮಡಿ": 6719,
      "ಭ್ರಷ್ಟ": 6720,
      "ಜಾಗೃತಿ": 6721,
      "ಆಸ್ಟ್ರೇ": 6722,
      "ಹೆಚ್": 6723,
      "ಪ್ರೇಕ್ಷ": 6724,
      "ಫೆಬ್ರ": 6725,
      "ತಯಾರಿ": 6726,
      "ೀಕರ": 6727,
      "ಸಂಬಂಧಿ": 6728,
      "ಎತ್ತರ": 6729,
      "ನಡೆಸಿದರು": 6730,
      "ವನ್ನೇ": 6731,
      "ಎದುರು": 6732,
      "ಮಾಡುತ್ತಾರೆ": 6733,
      "ಸ್ವಾಮೀಜಿ": 6734,
      "ಂತಾಗಿದೆ": 6735,
      "ಪಾರ": 6736,
      "ಸಿನಲ್ಲಿ": 6737,
      "ಕೇಂದ್ರದ": 6738,
      "ಒಪ್ಪಂದ": 6739,
      "ವಾರ್ಷಿ": 6740,
      "ತಾನ": 6741,
      "ದೃಢ": 6742,
      "ಭೇಟ": 6743,
      "ಪ್ರಮಾಣದಲ್ಲಿ": 6744,
      "ರುವುದಾಗಿ": 6745,
      "ಳುವ": 6746,
      "ಸಂಘಟ": 6747,
      "ಭಗ": 6748,
      "ಕ್ಟ್": 6749,
      "ವಿಭಾಗದ": 6750,
      "ತಿಯು": 6751,
      "ಲೋಕಸಭಾ": 6752,
      "ಕೃತಿಕ": 6753,
      "ಐಟಿ": 6754,
      "ಪಾವತ": 6755,
      "ಂಧ್ರ": 6756,
      "ಕಠಿ": 6757,
      "ಂಘ": 6758,
      "ಸಮ್ಮೇಳ": 6759,
      "ನೃ": 6760,
      "ಅಡ": 6761,
      "ಕಪ್ಪು": 6762,
      "ನೆಗಳು": 6763,
      "ಯಿಂದ": 6764,
      "ಫ್ಟ್": 6765,
      "ಎಡ": 6766,
      "ಳೆದ": 6767,
      "ಗೆರೆ": 6768,
      "ವಿದೇಶ": 6769,
      "ಪ್ರವಾಹ": 6770,
      "ಇತರೆ": 6771,
      "ಿಯೂ": 6772,
      "ಕ್ತಿಯನ್ನು": 6773,
      "ಎಚ್ಚರ": 6774,
      "ವಾಪ": 6775,
      "ಹಿನ್ನ": 6776,
      "ರೋಗಿ": 6777,
      "..?": 6778,
      "ಮ್ಮಾ": 6779,
      "ಮಾಹಿತಿಯನ್ನು": 6780,
      "ಗುರಿಯ": 6781,
      "ಹುಡುಕ": 6782,
      "ಸಾಂಸ್": 6783,
      "ಭಾಗದ": 6784,
      "ತುಂಬಿ": 6785,
      "ಿಸಿಕೊಂಡಿದ್ದಾರೆ": 6786,
      "en": 6787,
      "ನಿದ": 6788,
      "ದ್ಯಾ": 6789,
      "ಗ್ರಿ": 6790,
      "ಸಂಗತಿ": 6791,
      "ಎನ್ನಲಾಗಿದೆ": 6792,
      "ಗಾರ್": 6793,
      "ದರ್ಶನ್": 6794,
      "ತಾಲ್ಲೂಕಿನ": 6795,
      "di": 6796,
      "ಕ್ಷ್": 6797,
      "ಮಹತ್ವದ": 6798,
      "ಆದಿ": 6799,
      "ದಿಷ್ಟ": 6800,
      "ಮ್ಸ್": 6801,
      "ಂಡೆ": 6802,
      "ರೈಲ್ವೆ": 6803,
      "ಆಗಸ್ಟ್": 6804,
      "ಬ್ರೇ": 6805,
      "ಒಪ್ಪಿ": 6806,
      "ಹಿಕ": 6807,
      "ಾಗಿದ್ದರು": 6808,
      "ಕೋಪ": 6809,
      "ವಿವಾಹ": 6810,
      "ಅಕ್ಟೋಬರ್": 6811,
      "ಕಾರ್ಯಕರ್ತರು": 6812,
      "ಚಂದ": 6813,
      "Read": 6814,
      "ಣಿಕೆ": 6815,
      "ಲೇಷ": 6816,
      "ಸೂಪರ್": 6817,
      "ಹೆದ್ದ": 6818,
      "ದ್ಯಮ": 6819,
      "ಏಪ್ರಿಲ್": 6820,
      "ಪ್ರಕರಣಗಳು": 6821,
      "ಪತ್ರಿಕೆ": 6822,
      "ಇತ್ತೀಚಿನ": 6823,
      "ಸ್ಪಂದ": 6824,
      "ಇದ್ದರೆ": 6825,
      "ಮಾಡಿದ್ದರು": 6826,
      "ಲಂಬ": 6827,
      "ಸಮಾನ": 6828,
      "ಗ್ರಂಥ": 6829,
      "ೀರಾ": 6830,
      "ುತ್ತಿಗೆ": 6831,
      "ವಿರಾ": 6832,
      "ಸಭೆಯ": 6833,
      "ಸಚಿವರ": 6834,
      "ಕಠಿಣ": 6835,
      "ಸಮಾಜದ": 6836,
      "ಟಾರ್": 6837,
      "ಕರ್ತವ್ಯ": 6838,
      "ರಾಶಿ": 6839,
      "ಧಾರವಾಡ": 6840,
      "ಕೊಂಡರು": 6841,
      "ಶುದ್ಧ": 6842,
      "ಆಪ್": 6843,
      "ಕೊಹ್ಲಿ": 6844,
      "ೇಡ್": 6845,
      "ಮನಸ್ಸು": 6846,
      "ಂತೂ": 6847,
      "ಹೊರಡ": 6848,
      "ಅಣ್ಣ": 6849,
      "ವಿಜಯ್": 6850,
      "ಮುಚ್ಚ": 6851,
      "ಒಳಗೆ": 6852,
      "ಸ್ಕೂ": 6853,
      "ನಿರ್ದೇಶನ": 6854,
      "ಗುಂಡಿ": 6855,
      "ಸನ್ನಿ": 6856,
      "ದೀರ್ಘ": 6857,
      "ಸಾಕು": 6858,
      "ಸರಕಾರದ": 6859,
      "ಪ್ರದರ್ಶ": 6860,
      "ಅಶೋ": 6861,
      "ಸೇತ": 6862,
      "ಪಟ್ಟು": 6863,
      "ಆಯು": 6864,
      "ನೇಮಕ": 6865,
      "ನಂಬಿಕೆ": 6866,
      "ಅನ್ವಯ": 6867,
      "ಲ್ಲದ": 6868,
      "ಅರ್ಹ": 6869,
      "ಎಂಟ": 6870,
      "ಂಸ": 6871,
      "ಎಂದೂ": 6872,
      "ಟೂರ್": 6873,
      "ಎಕ್ಸ್": 6874,
      "ಟ್ಯೂ": 6875,
      "ಟೆಕ್": 6876,
      "ಸುಳ್ಳು": 6877,
      "ದೇವೇಗೌಡ": 6878,
      "ಸಾವಿರಾರು": 6879,
      "ಗಂಭೀರ": 6880,
      "ತ್ತಾ": 6881,
      "ಮಾರುಕಟ್ಟೆಯಲ್ಲಿ": 6882,
      "ಕರಿ": 6883,
      "ರಿಸಿ": 6884,
      "ಬೇಕಾ": 6885,
      "ಲಿಯನ್": 6886,
      "ಗಿದೆ": 6887,
      "ತೀಯ": 6888,
      "ಟಿಕೆಟ್": 6889,
      "ವೆಬ್": 6890,
      "ದ್ದೇ": 6891,
      "ಚಿತ್ರಕ್ಕೆ": 6892,
      "ಟ್ರಿಕ್": 6893,
      "ಿಸಿಕೊಳ್ಳುವ": 6894,
      "ಪ್ರಾರ್ಥ": 6895,
      "ನಿರ್ದಿಷ್ಟ": 6896,
      "ಸಂವಿಧಾನ": 6897,
      "ಟೆಡ್": 6898,
      "ಎಷ್ಟ": 6899,
      "ಉತ್ಸವ": 6900,
      "ಹೊರಗೆ": 6901,
      "ಸಹೋ": 6902,
      "ಮ್ಮು": 6903,
      "ಆಯಾ": 6904,
      "ಕೊಟ್ಟು": 6905,
      "ನೀಡಿದ್ದ": 6906,
      "ುವಾಗಿ": 6907,
      "ಕೊಳ್ಳಬೇಕು": 6908,
      "ಹೇಳುವ": 6909,
      "ಬಾಸ್": 6910,
      "ಹಬ್ಬದ": 6911,
      "Bharati": 6912,
      "ಅಚ್ಚ": 6913,
      "ಉಸ್ತುವಾರಿ": 6914,
      "ನಡೆಯುತ್ತಿದೆ": 6915,
      "ಪ್ರಯೋಗ": 6916,
      "ಆಹ್ವಾನ": 6917,
      "ಗಿದ": 6918,
      "ಡಿತ": 6919,
      "ಪ್ರಸಿದ್ಧ": 6920,
      "ಜೀವನದ": 6921,
      "ಪ್ರಕ್ರಿಯ": 6922,
      "ದ್ರಾ": 6923,
      "ರ್ವ": 6924,
      "ಂಕ್": 6925,
      "ಕಾನ್": 6926,
      "ದುರ": 6927,
      "ಡೊ": 6928,
      "ಗೊತ್ತಾ": 6929,
      "ತ್ಸಾಹ": 6930,
      "ವೈಯಕ್ತಿಕ": 6931,
      "ಸುದೀಪ್": 6932,
      "ದಕ್ಕೆ": 6933,
      "ಸೆಳೆಯ": 6934,
      "ಷಾ": 6935,
      "ರಮೇಶ್": 6936,
      "ಲೊ": 6937,
      "ಲೆಕ್ಕ": 6938,
      "ಬಂದಾಗ": 6939,
      "ವಿರೋಧಿ": 6940,
      "ಹೇಳುತ್ತಾರೆ": 6941,
      "ಬಸ": 6942,
      "ವಾಯು": 6943,
      "ಏಳು": 6944,
      "ಹಣಕಾಸು": 6945,
      "ಕಂದ": 6946,
      "ನಿಮ್ಮನ್ನು": 6947,
      "ವ್ಯವಸ್ಥ": 6948,
      "ವೊ": 6949,
      "ಕಾರ್ಮಿಕ": 6950,
      "ನೇರವಾಗಿ": 6951,
      "ಧಕ": 6952,
      "ನೂರು": 6953,
      "ನಿರ್ಮಾಪ": 6954,
      "ಾಗಲಿದೆ": 6955,
      "ಮಾಡಿಕೊಂಡು": 6956,
      "ುವುದಾಗಿ": 6957,
      "ಗೋಷ್ಠ": 6958,
      "ನಡೆದು": 6959,
      "ಕಾಲು": 6960,
      "ಬಾಲಿವುಡ್": 6961,
      "ನೋಟ": 6962,
      "ಲ್‌ನಲ್ಲಿ": 6963,
      "ಕಂಪನಿಯ": 6964,
      "ರ್ಸ್": 6965,
      "ಾಗುತ್ತಿದೆ": 6966,
      "ದಿನೇ": 6967,
      "ಪರಿಶೀಲನೆ": 6968,
      "ಗಾನ": 6969,
      "ವಿಮರ್": 6970,
      "ಸ್ಟಾ": 6971,
      "ವಾಗಿಲ್ಲ": 6972,
      "ಮಲ್": 6973,
      "ಸ್ಪೀ": 6974,
      "ವಾಣಿಜ್ಯ": 6975,
      "ಎನ": 6976,
      "ಉಲ್ಲ": 6977,
      "ದೊರೆ": 6978,
      "ಪ್ರಕಾಶ್": 6979,
      "ವೇತನ": 6980,
      "ದಾಟ": 6981,
      "ನ್‌ನ": 6982,
      "ಚೋ": 6983,
      "ನಿರ್ವಹಣೆ": 6984,
      "ಭಾರತಕ್ಕೆ": 6985,
      "ಹಸಿರು": 6986,
      "ಎಲ್ಲವೂ": 6987,
      "ಗಂಟೆಗೆ": 6988,
      "ಕಾಯ್ದೆ": 6989,
      "ವೃದ್ಧ": 6990,
      "ಬ್ಯಾಂಕ್‌": 6991,
      "ಿಯಾಗಿದೆ": 6992,
      "ಕರ್ಯ": 6993,
      "ನೇತೃತ್ವದ": 6994,
      "ub": 6995,
      "ವಿಶ್ವದ": 6996,
      "ಹರಿಯ": 6997,
      "ಹೆಜ್ಜೆ": 6998,
      "ಮತ್ತಿತರ": 6999,
      "ವಾತಾವರಣ": 7000,
      "ಮಹತ್ವ": 7001,
      "ಬಸ್‌": 7002,
      "ೀನ್": 7003,
      "ದಲ್ಲಿನ": 7004,
      "ರಾಮನ": 7005,
      "ಿಸುವಲ್ಲಿ": 7006,
      "ದಂಪ": 7007,
      "ಗುಜರಾ": 7008,
      "ಚೆನ್ನೈ": 7009,
      "ಶುರು": 7010,
      "ನೃತ್ಯ": 7011,
      "ಇದುವ": 7012,
      "ಮಧ್ಯಾಹ್ನ": 7013,
      "ಹೊತ್ತು": 7014,
      "ಮಠದ": 7015,
      "ಹಾಡ": 7016,
      "ಕಂಬ": 7017,
      "ರಾಗಿದ್ದಾರೆ": 7018,
      "ಶುಲ್ಕ": 7019,
      "ಗೊಂದಲ": 7020,
      "ದೇಶಿ": 7021,
      "ಸಂದರ್ಶ": 7022,
      "ತೆಗಳು": 7023,
      "ಅನುಮಾನ": 7024,
      "ಚಿತ್ರೀಕರಣ": 7025,
      "ಸೇರ್": 7026,
      "ಕ್ಯಾನ್": 7027,
      "ಹೊರಟ": 7028,
      "more": 7029,
      "ಇಡ": 7030,
      "ಎಕ್ಸ್‌": 7031,
      "TV": 7032,
      "th": 7033,
      "ತಾರಾ": 7034,
      "ಿದ್ದಾಗ": 7035,
      "ನೇತೃತ್ವದಲ್ಲಿ": 7036,
      "ಸರ್ವ": 7037,
      "ಸಂಸ": 7038,
      "ಮಂಗಳೂ": 7039,
      "ವರ್ಣ": 7040,
      "ಪದ್ಧ": 7041,
      "ದೇವರು": 7042,
      "ಮಾಲಿ": 7043,
      "ತೈ": 7044,
      "ಶಃ": 7045,
      "ಅವರೇ": 7046,
      "ಸರಣಿ": 7047,
      "ಏರಿಕೆ": 7048,
      "ನಿರೀಕ್ಷೆ": 7049,
      "ಭೂಮ": 7050,
      "ಆತ್ಮಹತ್ಯೆ": 7051,
      "ಬಂತು": 7052,
      "ಕೈಗೆ": 7053,
      "ಬೇಸರ": 7054,
      "ಸೋಲ": 7055,
      "ಗಂಗಾ": 7056,
      "ಳಿಕೆ": 7057,
      "ಪರಿಸ್ಥಿ": 7058,
      "ನೀರನ್ನು": 7059,
      "ಅಡುಗೆ": 7060,
      "ವಿವೇ": 7061,
      "ಕುಳಿತು": 7062,
      "ಸಮರ್ಪ": 7063,
      "ಪ್ರಿಯಾ": 7064,
      "ಜಿಲ್ಲಾಡಳಿತ": 7065,
      "ಪಾಯಿ": 7066,
      "ಪಾಲು": 7067,
      "ರಂ": 7068,
      "ಸ್ಫೋ": 7069,
      "?\"": 7070,
      "ಬೆಂಕಿ": 7071,
      "ಸರಿಗೆ": 7072,
      "ಬೀಜ": 7073,
      "ಒಂದೆ": 7074,
      "ಹೋಲ": 7075,
      "ಸಾಂಸ್ಕೃತಿಕ": 7076,
      "ತಹ": 7077,
      "ಕೋಶ": 7078,
      "‍ನ": 7079,
      "ವಿಕೆಟ್": 7080,
      "ಉಂಟು": 7081,
      "ಉಲ್ಲಂಘ": 7082,
      "ರಸ್ತೆಯಲ್ಲಿ": 7083,
      "ವೈರಲ್": 7084,
      "ಇಂಡ": 7085,
      "ಗಳಲ್ಲೂ": 7086,
      "ಲೋಡ್": 7087,
      "ಆಪಲ್": 7088,
      "ನಾಳೆ": 7089,
      "ಯಕ್ಷ": 7090,
      "ಇದ್ದಾರೆ": 7091,
      "ಪಡೆಯುವ": 7092,
      "ಾಚಾರ": 7093,
      "ಜ್ಞಾನಿ": 7094,
      "ಮತ್ತೊಮ್ಮೆ": 7095,
      "ಂಟೆ": 7096,
      "ಪೆಟ್ರೋಲ್": 7097,
      "ವೈದ್ಯರು": 7098,
      "ರಾಜ್ಯಾ": 7099,
      "ಅನಿವಾರ": 7100,
      "ಅವುಗಳ": 7101,
      "ಹಲ್ಲೆ": 7102,
      "ಕಲಬು": 7103,
      "ರಿಂಗ್": 7104,
      "ತಾಂತ್ರಿಕ": 7105,
      "ಸಾವನ್ನ": 7106,
      "ಮಲ್ಲಿ": 7107,
      "ಸಚಿವಾಲಯ": 7108,
      "ಕಾವ್ಯ": 7109,
      "ಕೂಟ": 7110,
      "ಆಸಕ್ತಿ": 7111,
      "ಯರ್": 7112,
      "ದಿತ್ತು": 7113,
      "ಯಾವಾಗಲೂ": 7114,
      "ಗುಂಪು": 7115,
      "ವೇದಿಕೆ": 7116,
      "ಹನು": 7117,
      "ತೀರ": 7118,
      "ಜ್ಯೋ": 7119,
      "ಪ್ರಮಾಣದ": 7120,
      "ಹಾರ್": 7121,
      "ಅಭಿನಂದ": 7122,
      "ಂಡಾ": 7123,
      "ನಲ್ಲಿರುವ": 7124,
      "ಶವ": 7125,
      "ಅಲ್ಲಿನ": 7126,
      "tic": 7127,
      "ಆಸ್ಪತ್ರೆಯಲ್ಲಿ": 7128,
      "ಶಕ್ತಿಯ": 7129,
      "ಪರ್ಯಾ": 7130,
      "ವಂದ": 7131,
      "ಅಸಮಾಧಾನ": 7132,
      "ಮಾನ್ಯ": 7133,
      "ತ್ಪಾದ": 7134,
      "ವಂಚ": 7135,
      "ದರಾ": 7136,
      "ನಡೆಸುವ": 7137,
      "ಸ್ಥಳಕ್ಕೆ": 7138,
      "ದಿನಕ್ಕೆ": 7139,
      "ಂಗಣದಲ್ಲಿ": 7140,
      "ಬೋರ್": 7141,
      "ಗಾಂಧ": 7142,
      "ನೆರವು": 7143,
      "ಂತ್ಯ": 7144,
      "ೆಯಾಗಿ": 7145,
      "ಲಿಂಗ್": 7146,
      "ಗ್ರಾಮಸ್ಥ": 7147,
      "ರೀಶ್": 7148,
      "ಸರಕಾರಿ": 7149,
      "ೋದು": 7150,
      "ಸ್ಪರ್ಧೆ": 7151,
      "ಮದ್ಯ": 7152,
      "ಜಲಾ": 7153,
      "ಬಿಬಿಎಂ": 7154,
      "ನೂರಾರು": 7155,
      "ಸಕ್ರಿಯ": 7156,
      "ಕಾಲದ": 7157,
      "ದೋಷ": 7158,
      "ಬೀದಿ": 7159,
      "ನಾಡ": 7160,
      "ಸ್ಲಾ": 7161,
      "ಇಂಟರ್": 7162,
      "ಔಷಧ": 7163,
      "ಂಬಾ": 7164,
      "ಬದಲು": 7165,
      "ಿಸದ": 7166,
      "ಸಾಲು": 7167,
      "ಮ್ಮದ್": 7168,
      "ಜವಾಬ್ದಾರಿ": 7169,
      "ಧನ್ಯವಾದಗಳು": 7170,
      "ಯೋಗಿ": 7171,
      "ಶತಮಾನ": 7172,
      "ರಚನೆ": 7173,
      "ರಾಮ್": 7174,
      "ವ್ಯಾಪ್ತಿಯಲ್ಲಿ": 7175,
      "ಜೆಡಿಎಸ್‌": 7176,
      "ಬೃಹತ್": 7177,
      "ಶರ": 7178,
      "ಬಳಕೆಯ": 7179,
      "ಶಾಂತ": 7180,
      "ಆಗಿರುವ": 7181,
      "ತಡ": 7182,
      "ಅಕ್ಕ": 7183,
      "ಬಂದರೆ": 7184,
      "te": 7185,
      "ಸುಮ್ಮ": 7186,
      "ನಮ್ಮನ್ನು": 7187,
      "ಕ್ತರ": 7188,
      "ಬಟ್ಟೆ": 7189,
      "ಮೂವರು": 7190,
      "2017": 7191,
      "ಅಧಿಕಾರಿಗಳಿಗೆ": 7192,
      "ಫೇಸ್": 7193,
      "ಜಾಹೀ": 7194,
      "ಭೋ": 7195,
      "90": 7196,
      "ದಲ್ಲಿಯೇ": 7197,
      "ವ್ಯಕ್ತಪಡಿಸಿದ್ದಾರೆ": 7198,
      "ದಾಯಿ": 7199,
      "ಮೀಟರ್": 7200,
      "ಸಜ್": 7201,
      "ಪ್ರವಾಸಿ": 7202,
      "ತೂಕ": 7203,
      "ದಾವಣ": 7204,
      "ನಿಂತು": 7205,
      "ಪೊಲೀಸ್‌": 7206,
      "ತಿದ್ದು": 7207,
      "ಅಡ್": 7208,
      "ರಂಜ": 7209,
      "ಪ್ರೋತ್ಸಾಹ": 7210,
      "ದೆಯ": 7211,
      "ಕಾಲೇಜಿನ": 7212,
      "ತೀರ್ಥ": 7213,
      "ಿಸಿಲ್ಲ": 7214,
      "ಶಿಬಿ": 7215,
      "75": 7216,
      "ಆಲ್": 7217,
      "ವಿಶ್ಲೇಷ": 7218,
      "ಬಸವರಾಜ": 7219,
      "ನೋಡಲು": 7220,
      "ಫರ್": 7221,
      "ಗಿತ": 7222,
      "ಕ್ಯೂ": 7223,
      "ಸೆಪ್ಟೆಂಬರ್": 7224,
      "ತನಕ": 7225,
      "ತಿಂಗಳಲ್ಲಿ": 7226,
      "ಸೌಕರ್ಯ": 7227,
      "ಇಲ್ಲದೆ": 7228,
      "ಕೆಜಿ": 7229,
      "ಿಸಲ್": 7230,
      "ಕಾಶ್ಮೀರ": 7231,
      "ಪ್ರಾಣ": 7232,
      "ವೀಡಿಯೊ": 7233,
      "ಸಂಖ್ಯಾ": 7234,
      "ಿತ್ತು": 7235,
      "ಪ್ರಪಂಚ": 7236,
      "ಆಕೆಯ": 7237,
      "ಾಗಲಿ": 7238,
      "ವೆಬ್‌": 7239,
      "ಸ್ವಿ": 7240,
      "ಸುಲಭವಾಗಿ": 7241,
      "ಏನ": 7242,
      "ಹೈದರಾ": 7243,
      "ಅಧಿಕೃತ": 7244,
      "ಕಾರ್ಯಕ್ರಮದ": 7245,
      "ವಿಫಲ": 7246,
      "ಅಲ್ಪ": 7247,
      "ಸೇರಿಸಿ": 7248,
      "ಜಾನ್": 7249,
      "ರಲು": 7250,
      "ಕ್ರೆ": 7251,
      "ರಜ": 7252,
      "ಕಂಪ್ಯೂ": 7253,
      "ಡನೆ": 7254,
      "ಇಳ": 7255,
      "ಕುಸಿ": 7256,
      "ಸಮುದಾಯದ": 7257,
      "lic": 7258,
      "ಆಶ್ರ": 7259,
      "ನಾದರೂ": 7260,
      "ಅಪರಾಧ": 7261,
      "ಉಳಿಯ": 7262,
      "ಕೋವಿಡ್‌": 7263,
      "ಥ್": 7264,
      "ಶಿವಕುಮಾರ್": 7265,
      "ಗಣೇಶ": 7266,
      "ನಿರ್ಬಂಧ": 7267,
      "ಮಾತುಕತೆ": 7268,
      "೧೦": 7269,
      "ರಾಘ": 7270,
      "ಹಂತದ": 7271,
      "ಅನುಷ್ಠಾನ": 7272,
      "ವಿಚಾರದಲ್ಲಿ": 7273,
      "ಪ್ರತಿದ": 7274,
      "ಂಗಿ": 7275,
      "ಬಂದ್": 7276,
      "ಸನ್ನು": 7277,
      "ಸೌಂದ": 7278,
      "ವಿಶೇಷವಾಗಿ": 7279,
      "ಲೀಸ್": 7280,
      "ಪ್ರತಿಷ್ಠ": 7281,
      "ಅಭ್ಯಾಸ": 7282,
      "ದಶಕ": 7283,
      "ಅಂತಾರಾ": 7284,
      "ಸಮಾವೇಶ": 7285,
      "ಮುಗಿದ": 7286,
      "ಪ್ರಸಾರ": 7287,
      "ಸೂಕ್ಷ್": 7288,
      "ಬುದ್ಧಿ": 7289,
      "ಮದ್": 7290,
      "ಂಪಿಯ": 7291,
      "ಒಣ": 7292,
      "ಪಠ್ಯ": 7293,
      "ಧಾರಿತ": 7294,
      "ಡೌನ್‌": 7295,
      "ಟ್ಟಿಗೆ": 7296,
      "Pre": 7297,
      "ವಾಸ್ತವ": 7298,
      "ಎಸೆ": 7299,
      "ನಾಡಿ": 7300,
      "ಸಿದ್ಧತೆ": 7301,
      "ರಾಜಕಾರಣ": 7302,
      "ಸಿಡಿ": 7303,
      "ಖ್": 7304,
      "ಕಂಪನಿಯು": 7305,
      "ಕಮಾ": 7306,
      "ಮಗಳು": 7307,
      "ಪಟ್ಟಣದ": 7308,
      "ಫ್ರಾ": 7309,
      "ಮಾನಸಿಕ": 7310,
      "ಬಜೆಟ್": 7311,
      "ಬಣ್ಣದ": 7312,
      "ಪಡುವ": 7313,
      "ಜಾನ": 7314,
      "ಮೈದಾನ": 7315,
      "ಧ್ವನಿ": 7316,
      "ಜಾಹೀರಾ": 7317,
      "ಧರಿಸಿ": 7318,
      "ಬಾರ್": 7319,
      "ಆಕೆ": 7320,
      "ಪಾಲಿಕೆ": 7321,
      "ಚಿತ್ರವನ್ನು": 7322,
      "ಆಧುನಿಕ": 7323,
      "ಚೈ": 7324,
      "ವಿಶಿಷ್ಟ": 7325,
      "ವರೇ": 7326,
      "ಮಕ್ಕಳನ್ನು": 7327,
      "ಪ್ರಾಧಿಕಾರ": 7328,
      "ಭೂತ": 7329,
      "ಓದು": 7330,
      "ಚಾಲಕ": 7331,
      "ಕಟ್ಟೆ": 7332,
      "ous": 7333,
      "ಆಯುಕ್ತ": 7334,
      "ವಾಗಿದ್ದ": 7335,
      "ಗರ್": 7336,
      "ಕಿಗೆ": 7337,
      "ಗೊಂಡಿರುವ": 7338,
      "ಹೆಸರಿನಲ್ಲಿ": 7339,
      "ಪದ್": 7340,
      "ಮುಸ್ಲಿಂ": 7341,
      "ಆಮ್": 7342,
      "ನೆನಪಿ": 7343,
      "ಕಾಟ": 7344,
      "ಬಂಗ": 7345,
      "ಗಾಳಿ": 7346,
      "ಮೂರ್": 7347,
      "ಕರೆದು": 7348,
      "ವರ್ಗಾ": 7349,
      "ಚಿಂತನೆ": 7350,
      "ಮಂಗ": 7351,
      "ಸತ": 7352,
      "‍ಗೆ": 7353,
      "ಗಿಕ": 7354,
      "ಲಾಗಿ": 7355,
      "ಅಪಾರ": 7356,
      "ಸಮಿತಿಯ": 7357,
      "ಚುನಾವಣೆಗೆ": 7358,
      "com": 7359,
      "ವಾಸ್": 7360,
      "ಉಸಿ": 7361,
      "ಳ್ಯ": 7362,
      "ri": 7363,
      "ಬ್ಯ": 7364,
      "ಮಂತ್ರಿಯ": 7365,
      "ಪ್ರಗತಿ": 7366,
      "ನಡೆಸಿದ್ದಾರೆ": 7367,
      "ರೋಹಿ": 7368,
      "ಶಿಫಾರ": 7369,
      "ಮಾಡುತ್ತಿರುವ": 7370,
      "ನಿನ್ನೆ": 7371,
      "ಗಾರರ": 7372,
      "ಕರ್ನಾಟಕದಲ್ಲಿ": 7373,
      "ಶಂಕರ್": 7374,
      "ತಲಾ": 7375,
      "ದಾದ್ಯಂತ": 7376,
      "ಗಾರರು": 7377,
      "ಲಾಗ್": 7378,
      "ರಗಿ": 7379,
      "ುವುದಕ್ಕೆ": 7380,
      "ಸ್ಟೆ": 7381,
      "ಘಟಕದ": 7382,
      "ಕಾವೇರಿ": 7383,
      "ಷ್ಟ್ರೀಯ": 7384,
      "ಭಯೋ": 7385,
      "ಸ್ಥಾನಕ್ಕೆ": 7386,
      "ವರ್ಷಗಳಲ್ಲಿ": 7387,
      "ಆದ್ಯತೆ": 7388,
      "ಗಾಗ": 7389,
      "ಶೇಖರ್": 7390,
      "ಪ್ರೇಮ": 7391,
      "ಕತ್ತ": 7392,
      "ಚನ್ನ": 7393,
      "ಇನ್ನಿ": 7394,
      "ಶಬ್ದ": 7395,
      "ಭರ್ಜ": 7396,
      "ಆಚರಣೆ": 7397,
      "ಮೊದಲೇ": 7398,
      "ವಿದ್ಯಾರ್ಥಿಗಳ": 7399,
      "ಿಸುತ್ತಾ": 7400,
      "ವಾಗುತ್ತಿದೆ": 7401,
      "ಕೆಳಗೆ": 7402,
      "ವರದಿಯ": 7403,
      "ಸಂಸ್ಥೆಗಳು": 7404,
      "ಜಾಗತಿಕ": 7405,
      "ನಿರಾಕರ": 7406,
      "ಭಾಗ್ಯ": 7407,
      "ಬಾಲ್": 7408,
      "ಾಡ": 7409,
      "ಜೋಡ": 7410,
      "ಗಾತ್ರ": 7411,
      "ನಡೆಯುತ್ತಿರುವ": 7412,
      "',": 7413,
      "ಜ್ಯೋತಿ": 7414,
      "ಬೆರ": 7415,
      "ಪ್ರತಿಯೊಂದು": 7416,
      "ಸೌಂದರ್ಯ": 7417,
      "….": 7418,
      "ಕಣ್": 7419,
      "ಅರು": 7420,
      "ಅಂದಾ": 7421,
      "ಗೆಲು": 7422,
      "ಆಫ್ರಿ": 7423,
      "ಕುರು": 7424,
      "ಪರವಾಗಿ": 7425,
      "ಆಳ": 7426,
      "ಮೆರವ": 7427,
      "ಮುಂದುವರ": 7428,
      "ಚಿತ್ರಗಳು": 7429,
      "ನಿಕ್": 7430,
      "ಸಮಗ್ರ": 7431,
      "ಗೊತ್ತಿಲ್ಲ": 7432,
      "ಬಾಯಿ": 7433,
      "ರಿನಿಂದ": 7434,
      "ಭಯೋತ್ಪಾದ": 7435,
      "ಂಭಾಗ": 7436,
      "ಇಷ್ಟು": 7437,
      "ತರಕಾರಿ": 7438,
      "ಬಾಬು": 7439,
      "ಪ್ರಸ್ತಾಪ": 7440,
      "ಇಂಗ್ಲಿ": 7441,
      "ಳಿನ": 7442,
      "ಪದೇ": 7443,
      "ನಿರ್ಣಯ": 7444,
      "ಸಂಪನ್": 7445,
      "ಅಂತಾರಾಷ್ಟ್ರೀಯ": 7446,
      "ಮೆಚ್ಚು": 7447,
      "ಡೇಟಾ": 7448,
      "ನಿರ್ಲಕ್ಷ": 7449,
      "ಹೆಂಡ": 7450,
      "ಖಾಲಿ": 7451,
      "ತರಗತಿ": 7452,
      "ಲನ": 7453,
      "ಾಗಿವೆ": 7454,
      "ಬರೆದು": 7455,
      "ಆಗುವ": 7456,
      "ತುಳು": 7457,
      "ಸ್ವಂತ": 7458,
      "ಎಕರೆ": 7459,
      "ಾಗಬೇಕು": 7460,
      "ಶ್ರಾ": 7461,
      "ತೆಲು": 7462,
      "ಸವಾಲು": 7463,
      "||": 7464,
      "ಹಂತದಲ್ಲಿ": 7465,
      "ಮೆರವಣಿಗೆ": 7466,
      "ಬಂಗಾ": 7467,
      "ಮಕೂರು": 7468,
      "ಬಿರು": 7469,
      "ರಸ್ತೆಯ": 7470,
      "ತುಮಕೂರು": 7471,
      "ಸಲು": 7472,
      "ಏನೂ": 7473,
      "ಕಾಫಿ": 7474,
      "ದೇಹದ": 7475,
      "ಬಂದಿದ್ದ": 7476,
      "ನೀಡಿದ್ದರು": 7477,
      "ಪ್ರದೇಶಗಳಲ್ಲಿ": 7478,
      "ಹಾಕುವ": 7479,
      "ಅಭಿಮಾನಿಗಳು": 7480,
      "ಅಡಿಯಲ್ಲಿ": 7481,
      "ಟ್ಯ": 7482,
      "ಶೌ": 7483,
      "ಇಂಡಿಯ": 7484,
      "ಹರಿದ": 7485,
      "ಮೂಲಗಳು": 7486,
      "ನಿವೃತ್ತ": 7487,
      "ಅಂದ್ರೆ": 7488,
      "ಶಂಕರ": 7489,
      "ಎಂದಿ": 7490,
      "ticle": 7491,
      "ಬಾಯ": 7492,
      "ಶೈಕ್ಷ": 7493,
      "ವಿತರಣೆ": 7494,
      "ಮುಖಂಡರು": 7495,
      "ರ್‌ನಲ್ಲಿ": 7496,
      "ಲಕ್ಷ್ಮೀ": 7497,
      "ವರ್ಗದ": 7498,
      "ಚಿನ್ನದ": 7499,
      "ಶೇಖರ": 7500,
      "ಆಶ್": 7501,
      "ಬಂಟ್": 7502,
      "ಮಂತ್ರ": 7503,
      "ಬಗೆಯ": 7504,
      "es": 7505,
      "ಮುಂಗ": 7506,
      "ಬಿಎಸ್": 7507,
      "ಸ್ಪೆ": 7508,
      "ಎಂಜಿನ್": 7509,
      "ಸ್ಥಿರ": 7510,
      "ಂತಿಲ್ಲ": 7511,
      "ವ್ಯವಸ್ಥೆಯ": 7512,
      "ದಿಂದಲೇ": 7513,
      "ಅವಧಿ": 7514,
      "ನೀರಾ": 7515,
      "ಮೋದ": 7516,
      "ನಿಧನ": 7517,
      "ಸ್ಪರ": 7518,
      "ಗ್ರಾಂ": 7519,
      "ಿಸಲಾಗಿದ್ದು": 7520,
      "ರಂತೆ": 7521,
      "ಮಲೆ": 7522,
      "ಅಂತರ್": 7523,
      "ತರುವ": 7524,
      "ಎಲೆ": 7525,
      "ublic": 7526,
      "ಸ್ಥಗಿತ": 7527,
      "ವೃದ್ಧಿ": 7528,
      "ಪ್ರತಿದಿನ": 7529,
      "ಎಂದೇ": 7530,
      "ಇರಲಿಲ್ಲ": 7531,
      "ಕಡೆಗೆ": 7532,
      "ವಾದರೆ": 7533,
      "ನಹಳ್ಳಿ": 7534,
      "vious": 7535,
      "ೈರ್ಯ": 7536,
      "ಘಟ್ಟ": 7537,
      "Previous": 7538,
      "ವಿರುದ್ಧದ": 7539,
      "ಪಡಿಸಲು": 7540,
      "ಗುಣಮಟ್ಟದ": 7541,
      "ಕ್ಕೊ": 7542,
      "ೇಗೌಡ": 7543,
      "ಸಹೋದರ": 7544,
      "ಪುನೀ": 7545,
      "ಭ್ರಷ್ಟಾಚಾರ": 7546,
      "ವಿಷ್ಣ": 7547,
      "ಬೆಳೆದ": 7548,
      "ಲಾತಿ": 7549,
      "ಓಡಾ": 7550,
      "ವಾಗಿರುತ್ತದೆ": 7551,
      "ಿಸದೆ": 7552,
      "ಗ್ರಾಹಕರ": 7553,
      "ಸೇನಾ": 7554,
      "ಸೂಕ್ಷ್ಮ": 7555,
      "ಕಾರ್ಯಾಚರಣೆ": 7556,
      "ಪರಸ್ಪರ": 7557,
      "ಈಶ್ವರ": 7558,
      "ಪರಿಷತ್": 7559,
      "Public": 7560,
      "ಸಿಬ್ಬಂದ": 7561,
      "ಭಾಷಣ": 7562,
      "ತೀರ್ಪು": 7563,
      "ಪರಿವರ್ತ": 7564,
      "ಜಾಲತಾಣ": 7565,
      "ಏರಿಕೆಯ": 7566,
      "ತುರ್ತು": 7567,
      "ಗುವ": 7568,
      "ಕ್ಯಾಮೆ": 7569,
      "ಅಗ್": 7570,
      "ಎಂಸಿ": 7571,
      "ಇರುವುದು": 7572,
      "ಬಳಸುವ": 7573,
      "ಪ್ಯ": 7574,
      "ಮತಾ": 7575,
      "ಪ್ರೌ": 7576,
      "ಖರ್ಚು": 7577,
      "ಪಂಜಾ": 7578,
      "ಾಗೆ": 7579,
      "ಲಕ್ಷ್ಮಿ": 7580,
      "ಪ್ರಸ": 7581,
      "ಅಡ್ಡ": 7582,
      "ಗುತ್ತಿಗೆ": 7583,
      "ವಾರದ": 7584,
      "ಫೆಬ್ರವರಿ": 7585,
      "ಕೆಳಗಿನ": 7586,
      "ಕನ್": 7587,
      "ಸುರೇಶ್": 7588,
      "ಪ್ರಕರಣದ": 7589,
      "ಳನ್ನು": 7590,
      "ಮಾಡುತ್ತ": 7591,
      "ಂಬ್": 7592,
      "2016": 7593,
      "ಒಕ್ಕೂ": 7594,
      "ವಾಗಿವೆ": 7595,
      "ರ್ಷ": 7596,
      "ಫೋನ್‌": 7597,
      "ಪೂಜ": 7598,
      "ಹೈದರಾಬಾದ್": 7599,
      "ಮೊದಲಾದ": 7600,
      "ಅದೃಷ್ಟ": 7601,
      "ುವನ್ನು": 7602,
      "ಬಿದ": 7603,
      "ಪಾಸ": 7604,
      "ಆಂಧ್ರ": 7605,
      "ಶಿವಾ": 7606,
      "ಎಂಜಿನಿಯ": 7607,
      "ಂಬಿ": 7608,
      "ಹೆಸ": 7609,
      "99": 7610,
      "ಹೆಗ್": 7611,
      "ದಿಲ್ಲಿ": 7612,
      "ಮಟ್ಟಿಗೆ": 7613,
      "ನಿಜವಾದ": 7614,
      "ಧಾರಾ": 7615,
      "ಕಂಪೆನಿ": 7616,
      "ತಿನ್ನು": 7617,
      "ನೆರವೇ": 7618,
      "ಂದೇ": 7619,
      "ದೌ": 7620,
      "ಂದ್": 7621,
      "ಮರಾಜ": 7622,
      "ಹುಬ್ಬಳ್ಳಿ": 7623,
      "ಕುಸಿತ": 7624,
      "ಹಾಸನ": 7625,
      "ಕ್ಷೇಪ": 7626,
      "ಶಿಬಿರ": 7627,
      "ನವರು": 7628,
      "ಯಶಸ್ವಿ": 7629,
      "ನಾಗರಿಕ": 7630,
      "ಸದಸ್ಯರ": 7631,
      "ಕೆಲವೇ": 7632,
      "ಅದರಲ್ಲೂ": 7633,
      "ಮುಟ್ಟ": 7634,
      "ಕಾರಿನ": 7635,
      "ಚಾಂಪಿಯ": 7636,
      "ಕೃತಿಯ": 7637,
      "ಕಾಣಿಸಿಕೊಂಡ": 7638,
      "ಬಾಕಿ": 7639,
      "ದರಿಂದ": 7640,
      "ಪಾತ": 7641,
      "ಯಾತ್ರೆ": 7642,
      "ಸ್ಥಾಪಕ": 7643,
      "ಗೆಳೆಯ": 7644,
      "ಕರಾವಳಿ": 7645,
      "ಶ್ರೇಷ್ಠ": 7646,
      "ಮರಾ": 7647,
      "ಬ್ರಿಟಿ": 7648,
      "ಕರಾಗಿ": 7649,
      "ಕಡೆಯ": 7650,
      "ಅವಳು": 7651,
      "33": 7652,
      "ಭವಿ": 7653,
      "ನ್ನಾಗಿ": 7654,
      "ಹಿನ್ನೆಲೆ": 7655,
      "ಸಾವಿನ": 7656,
      "ವಾರ್ಷಿಕ": 7657,
      "ಯಾನ": 7658,
      "ಅಂಬೇಡ್": 7659,
      "ಅತಿಥಿ": 7660,
      "ಅಭಿವೃದ್ಧಿಗೆ": 7661,
      "ಬಹಳಷ್ಟು": 7662,
      "‍‍": 7663,
      "ಹೊಸದ": 7664,
      "ಲನ್ನು": 7665,
      "ವೇಶನ": 7666,
      "ಟಾಪ್": 7667,
      "ದಲ್ಲಿದ್ದ": 7668,
      "ಕಾಡೆ": 7669,
      "ಮೆಚ್ಚುಗೆ": 7670,
      "ಅತೀ": 7671,
      "ಫ್ರೆ": 7672,
      "ಸ್ವರೂ": 7673,
      "ಉಪನ್ಯಾಸ": 7674,
      "ಪ್ರೀತ": 7675,
      "ವೆಲ್": 7676,
      "ಸನ್ಮಾನ": 7677,
      "ಪ್ಲ": 7678,
      "ಅನಂತ": 7679,
      "ವಹಿ": 7680,
      "ವಿನಿಂದ": 7681,
      "ಸುಖ": 7682,
      "ವೆಲ್ಲ": 7683,
      "ರನ್‌": 7684,
      "ಪಂಚಾಯತ್": 7685,
      "ಮಹಾನ": 7686,
      ".,": 7687,
      "ಸ್ವತಃ": 7688,
      "ಬರೋ": 7689,
      "ಅಕ್ಷರ": 7690,
      "ಶ್ರೀನಿವಾಸ": 7691,
      "ನಲ್ಲ": 7692,
      "ಮೇಳ": 7693,
      "ತಿದೆ": 7694,
      "ಪ್ರಕಾಶ": 7695,
      "ತಾಪ": 7696,
      "ಆಸೆ": 7697,
      "ಚಲನಚಿತ್ರ": 7698,
      "ೇನು": 7699,
      "ಬೇಕಾದರೆ": 7700,
      "ಆಶ್ರಯ": 7701,
      "ಬಳ್ಳಾರಿ": 7702,
      "ಶಾಲ": 7703,
      "ದಿನಗಳಿಂದ": 7704,
      "ಪಟ್ಟಿಯಲ್ಲಿ": 7705,
      "ಪ್ರೌಢ": 7706,
      "ಸಾವನ್ನಪ್ಪ": 7707,
      "ವಾನ್": 7708,
      "ನೋಟಿ": 7709,
      "ವೈಶಿಷ್ಟ": 7710,
      "ಭರ್ಜರಿ": 7711,
      "ಅರ್ಜ": 7712,
      "ಕುಸಿದ": 7713,
      "ಂಪಿ": 7714,
      "ಮೋದಿಯ": 7715,
      "ಪ್ರಕರಣದಲ್ಲಿ": 7716,
      "ಸುಧಾ": 7717,
      "ಪರ್ಯಾಯ": 7718,
      "ತ್ತೆ": 7719,
      "ಮೇಲ": 7720,
      "ಮುದ್ರ": 7721,
      "36": 7722,
      "ಬಿಳಿ": 7723,
      "ಬಂಟ್ವಾಳ": 7724,
      "ವಿಯಲ್ಲಿ": 7725,
      "ಇಲ್ಲಿಯ": 7726,
      "ಚಿತವಾಗಿ": 7727,
      "ಶಾಖ": 7728,
      "ಸಿನಿಮಾದ": 7729,
      "ಅಲಂ": 7730,
      "ಬೇರೆಯ": 7731,
      "ಏನೇ": 7732,
      "ಿಸುವಾಗ": 7733,
      "ಪುತ್ತ": 7734,
      "ಅಯ್ಯ": 7735,
      "ಐತಿ": 7736,
      "ಇಟ್ಟ": 7737,
      "ತೆಗೆದುಕೊಂಡು": 7738,
      "ಇದರಿಂದಾಗಿ": 7739,
      "ಕೊಳ್ಳುವುದು": 7740,
      "ವಿಷಯದಲ್ಲಿ": 7741,
      "ಮಹಿಳೆಯರ": 7742,
      "ಎತ್ತಿ": 7743,
      "ಪ್ರೆಸ್": 7744,
      "ಟ್ಟಿನ": 7745,
      "ಇನ್‌": 7746,
      "ಟಿಕ್": 7747,
      "ಪಾಟೀಲ್": 7748,
      "ಹಾಕಲು": 7749,
      "ಭೂಮಿಯ": 7750,
      "ಿಸಲಾದ": 7751,
      "ರಾಜಧಾ": 7752,
      "ವಶಕ್ಕೆ": 7753,
      "ಸಂಪ್ರ": 7754,
      "ಜಮೀ": 7755,
      "ರವರು": 7756,
      "ನೀಡುವಂತೆ": 7757,
      "ಶಾಲೆಯಲ್ಲಿ": 7758,
      "ಕುಳಿತ": 7759,
      "ತತ್ವ": 7760,
      "ವ್ಯತ್ಯಾ": 7761,
      "ಕಿಡಿ": 7762,
      "ಇದೊಂದು": 7763,
      "ಇರಬೇಕು": 7764,
      "ಅನಿವಾರ್ಯ": 7765,
      "ಬಳಲ": 7766,
      "ೇಶ್ವರ": 7767,
      "ವೇಳೆಗೆ": 7768,
      "ಠಾಣೆ": 7769,
      "ಘು": 7770,
      "ಡ್ಯಾ": 7771,
      "ರಿಗಾಗಿ": 7772,
      "ಚಾಮರಾಜ": 7773,
      "ಶೈಕ್ಷಣಿಕ": 7774,
      "ನಿಶ್": 7775,
      "ಸಂಖ್ಯೆಯಲ್ಲಿ": 7776,
      "48": 7777,
      "ಸತೀ": 7778,
      "ಸ್ಮಾರ್ಟ್‌": 7779,
      "ಕಮ": 7780,
      "ಗಾರಿಕಾ": 7781,
      "ಸೇನೆ": 7782,
      "ಅವರಿಂದ": 7783,
      "ಜೋಡಿ": 7784,
      "ve": 7785,
      "ವನ್": 7786,
      "ಸ್ಪಷ್ಟಪಡ": 7787,
      "ಬಂಡವಾಳ": 7788,
      "ಕೇರಿ": 7789,
      "ಸಂಪನ್ಮೂಲ": 7790,
      "ಆಗಿದ್ದು": 7791,
      "ಸಮೀಪ": 7792,
      "ಕೆಂಪು": 7793,
      "ಿದರೆ": 7794,
      "ಬಿಜೆಪಿಗೆ": 7795,
      "ಸಂತ್ರ": 7796,
      "ಸಮೀಪದ": 7797,
      "ಖುಷಿ": 7798,
      "ಕೃತ್ಯ": 7799,
      "ಆಲ": 7800,
      "ಕ್ಲಾ": 7801,
      "ಸ್ಟಿಕ್": 7802,
      "ಯುವಕ": 7803,
      "ಪೂರೈಕೆ": 7804,
      "ಬರಿ": 7805,
      "ಕ್ಲಿ": 7806,
      "ಸಾಹಸ": 7807,
      "ಕೆಲಸವನ್ನು": 7808,
      "ಹವಾಮಾನ": 7809,
      "ಭದ್ರತಾ": 7810,
      "ಪಾಲ್ಗೊಂಡ": 7811,
      "ಅಭ್ಯರ್ಥ": 7812,
      "ಕಾದಂಬ": 7813,
      "ಬೇಕಿತ್ತು": 7814,
      "ತ್ತಿನಲ್ಲಿ": 7815,
      "ಕಾರ್ಯಕರ್ತರ": 7816,
      "ರುಚಿ": 7817,
      "ಕಿರಿ": 7818,
      "ವಿಧಾನಸಭೆ": 7819,
      "ಸಾಗರ": 7820,
      "ಕ್ಕರೆ": 7821,
      "ವಹಿಸಿ": 7822,
      "ಹೈಕೋರ್ಟ್": 7823,
      "ಸೇತುವೆ": 7824,
      "ಕ್ಯಾನ್ಸರ್": 7825,
      "ಇರಲಿ": 7826,
      "ಸ್ಕಾರ": 7827,
      "ಸುರ": 7828,
      "ವೇನು": 7829,
      "ವಹಿವಾ": 7830,
      "ಚಮ": 7831,
      "ಡ್ರೈ": 7832,
      "ಅಹ": 7833,
      "ಅದಕ್ಕಾಗಿ": 7834,
      "ಗರಿಷ್ಠ": 7835,
      "ಕೆಯಿಂದ": 7836,
      "ಜುನ": 7837,
      "ಪದಕ": 7838,
      "ಮಾಡುತ್ತಿದೆ": 7839,
      "ಜಾರ್": 7840,
      "ಐಎ": 7841,
      "ಕಾಯಿಲೆ": 7842,
      "ತಪಾಸ": 7843,
      "ರೂಪದಲ್ಲಿ": 7844,
      "ಕೆಲಸದ": 7845,
      "ಬಿಬಿಎಂಪಿ": 7846,
      "ವ್ಯಾಪ್ತಿಯ": 7847,
      "ಎತ್ತ": 7848,
      "ರಹ": 7849,
      "ಹೆದ್ದಾರಿ": 7850,
      "ದಲಿತ": 7851,
      "ಯೋಜನೆಯನ್ನು": 7852,
      "ಕೊಟ್ಟಿ": 7853,
      "ಮಾರಕ": 7854,
      "ುತ್ತಿದ್ದಂತೆ": 7855,
      "ಪಕ್ಷಗಳ": 7856,
      "ಮಗುವಿನ": 7857,
      "ಒಳ್ಳೆಯದು": 7858,
      "ಜ್ಞೆ": 7859,
      "ಹೆಸರನ್ನು": 7860,
      "ಅಗತ್ಯವಿದೆ": 7861,
      "ಮುಳು": 7862,
      "ರಥ": 7863,
      "ಅಂಥ": 7864,
      "ದೆಂದು": 7865,
      "ಭಾಷೆಯ": 7866,
      "article": 7867,
      "ಬೇಕೆಂಬ": 7868,
      "ಾಗಲು": 7869,
      "ಸ್‌ನಲ್ಲಿ": 7870,
      "ಕೌಶ": 7871,
      "ಸಸ್ಯ": 7872,
      "ಅಕಾಡೆ": 7873,
      "ಕಸ": 7874,
      "ಕಳೆಯ": 7875,
      "ನಂತೆ": 7876,
      "ಇಂಗ್ಲೆಂಡ್": 7877,
      "ಗದ": 7878,
      "ಕಾರಣಿ": 7879,
      "ಅದೆ": 7880,
      "ಮಸ್": 7881,
      "ಸ್ಥಳದಲ್ಲಿ": 7882,
      "ಇದಕ್ಕಾಗಿ": 7883,
      "ಶಿಕ್ಷಕರ": 7884,
      "ಗೂಗಲ್": 7885,
      "ಉದ್ಯಾ": 7886,
      "ಕೇಶ್": 7887,
      "ಸಂಪ್ರದಾಯ": 7888,
      "ತಿದ್ದ": 7889,
      "ಪಾವತಿ": 7890,
      "ನ್ಯಾಯಮೂರ್ತಿ": 7891,
      "ವಿನಿ": 7892,
      "ಬರಲು": 7893,
      "ಕಾಣಿಸಿಕೊಳ್ಳ": 7894,
      "ಸತ್ತ": 7895,
      "ಕಾಡು": 7896,
      "ಷ್‌": 7897,
      "ಡಿಜಿಟಲ್": 7898,
      "ಪತ್ರಕರ್": 7899,
      "32": 7900,
      "ಕಂಟ": 7901,
      "ಬನ್ನಿ": 7902,
      "ಸಲುವಾಗಿ": 7903,
      "ಪಿಸಿ": 7904,
      "ಆಲೋ": 7905,
      "ಾಗ್ರ": 7906,
      "ಫೇಸ್‌": 7907,
      "ದಾವಣಗೆರೆ": 7908,
      "ೂರಿ": 7909,
      "ಜಮ್ಮು": 7910,
      "ಪ್ರತೀ": 7911,
      "ಕಾಲಿಕ": 7912,
      "ನಿಂಗ್": 7913,
      "ಕೊಠ": 7914,
      "ುವಾದ": 7915,
      "ನೀಡಿದ್ದು": 7916,
      "ಸಿಪಿ": 7917,
      "ದಂಪತಿ": 7918,
      "ಸಿಂಗ್‌": 7919,
      "ಗ್ಗಿ": 7920,
      "ಜಗತ್ತಿನ": 7921,
      "ನೆರೆ": 7922,
      "ಸುತ್ತಮುತ್ತ": 7923,
      "ವಾದರೂ": 7924,
      "ಕೈಗೊಂಡ": 7925,
      "ದೃಷ್ಟಿ": 7926,
      "ಬದುಕಿನ": 7927,
      "ಲೆಟ್": 7928,
      "ಆವೃತ್ತ": 7929,
      "ವಸ್ತುಗಳನ್ನು": 7930,
      "ೈನ್": 7931,
      "ಸರ್ಕಾರವು": 7932,
      "ಿದೆಯೇ": 7933,
      "ವಾಪಸ್": 7934,
      "ಮನಿ": 7935,
      "ನೈಸರ್": 7936,
      "ಶಶಿ": 7937,
      "ತೆರವು": 7938,
      "ಅರೆ": 7939,
      "ತಿಂಗಳಿ": 7940,
      "ಮ್ಮಾಯಿ": 7941,
      "ಈಡೇ": 7942,
      "ಮುಚ್ಚಿ": 7943,
      "ದಾರ್": 7944,
      "ಮಸೂ": 7945,
      "ತಾತ್": 7946,
      "34": 7947,
      "ಅಸ್ತಿ": 7948,
      "ವಿದೇಶಿ": 7949,
      "ೀಸ್": 7950,
      "ಬಿದ್ದು": 7951,
      "ಸಿಂಗ": 7952,
      "ಕ್ರಮಗಳನ್ನು": 7953,
      "ಪ್ತಿ": 7954,
      "ಕಾರಣವಾಗಿದೆ": 7955,
      "ಬರುತ್ತಿದೆ": 7956,
      "ಅಮಿತ್": 7957,
      "ನಿಧಾನ": 7958,
      "ಸಾಹಿತಿ": 7959,
      "ಸಾಯಿ": 7960,
      "ವಿಜ್ಞಾನಿ": 7961,
      "ಯಕ್ಷಗಾನ": 7962,
      "ಪುರದ": 7963,
      "ಆಸ್ಟ್ರೇಲಿಯಾ": 7964,
      "ಸಿಇ": 7965,
      "ಿಸುವುದಾಗಿ": 7966,
      "ಸಮಸ್ಯೆಗಳನ್ನು": 7967,
      "ಿದ್ದರಿಂದ": 7968,
      "ಬೆದ": 7969,
      "ದಸರಾ": 7970,
      "ಾನಂದ": 7971,
      "ಭೌ": 7972,
      "ಇಸ್ರ": 7973,
      "ಪಾಸ್": 7974,
      "ಬೊಮ್ಮಾಯಿ": 7975,
      "ವಾಹನಗಳ": 7976,
      "ಜಾಹೀರಾತು": 7977,
      "ಇಂಧ": 7978,
      "ಹಾಲಿ": 7979,
      "ಪ್ರವಾಸೋ": 7980,
      "ಎದ್ದು": 7981,
      "ಅರಿವು": 7982,
      "ರಾಜಕಾರಣಿ": 7983,
      "ಪರಂಪ": 7984,
      "ಚರ್ಯ": 7985,
      "ನೆನಪು": 7986,
      "ೋರ್": 7987,
      "ಸಿಬಿಐ": 7988,
      "ದೃಷ್ಟಿಯಿಂದ": 7989,
      "ಚರಿ": 7990,
      "ನೇಮಕಾ": 7991,
      "ದನ": 7992,
      "ಅಲ್ಲಿಂದ": 7993,
      "ಸಂಸ್ಥೆಗಳ": 7994,
      "ದುರಂತ": 7995,
      "ಚಿತ್ರದುರ್ಗ": 7996,
      "ಮಹಾನಗರ": 7997,
      "37": 7998,
      "ತಂಡಕ್ಕೆ": 7999,
      "ಂಗು": 8000,
      "ವಿಷಯವನ್ನು": 8001,
      "೦೦": 8002,
      "ಪೊಲೀಸರಿಗೆ": 8003,
      "ಉದ್ಯಮಿ": 8004,
      "ಟಿಯ": 8005,
      "ಚರ್ಮ": 8006,
      "ಶುರುವ": 8007,
      "ಒಡ": 8008,
      "ಮುಂದೂ": 8009,
      "ನ್‌ಗೆ": 8010,
      "ಕಡಿತ": 8011,
      "ಳೆದು": 8012,
      "ma": 8013,
      "ಬಾಗಿಲು": 8014,
      "ಐತಿಹಾ": 8015,
      "ಅವಲಂಬ": 8016,
      "ಗುಲ": 8017,
      "ನೀರಾವರಿ": 8018,
      "ತಪ್ಪಿ": 8019,
      "ಶರ್ಮಾ": 8020,
      "ಭರಣ": 8021,
      "ಫಿಕ್": 8022,
      "ಐಫೋನ್": 8023,
      "ಜಿತ": 8024,
      "ದೊಳಗೆ": 8025,
      "ತಮಗೆ": 8026,
      "ಗುಣಮಟ್ಟ": 8027,
      "ಸ್ಮಾರ್ಟ್": 8028,
      "ಪೂಜಾರಿ": 8029,
      "ತನದ": 8030,
      "ಿವೆ": 8031,
      "ಮೂಡಿ": 8032,
      "೦ದ": 8033,
      "ುತ್ತೀರಿ": 8034,
      "ಆದಾಗ": 8035,
      "ದುರು": 8036,
      "ಗಡ": 8037,
      "ಮಾಡಿಕೊಡ": 8038,
      "ಂಗಿಕ": 8039,
      "ವೊಂದು": 8040,
      "ಹಚ್ಚಿ": 8041,
      "ಅಗ್ನಿ": 8042,
      "ಸನ": 8043,
      "ಅಮೆರಿಕದ": 8044,
      "ರಿಸ": 8045,
      "ಸಹಿ": 8046,
      "ತೆರಳಿ": 8047,
      "ಿದಾರ": 8048,
      "ಒಟ್ಟಾರೆ": 8049,
      "ಮಿತ್ರ": 8050,
      "ಹರಡ": 8051,
      "ಸಕ್ಕರೆ": 8052,
      "News13": 8053,
      "ಪಕ್ಷಗಳು": 8054,
      "ಧೈರ್ಯ": 8055,
      "xt": 8056,
      "ನೋಡುವ": 8057,
      "ಯಾವುದು": 8058,
      "ಕಾಳಜಿ": 8059,
      "ಪಾಲ್ಗೊಳ್ಳ": 8060,
      "ಕಾರಾ": 8061,
      "ಎಂಟು": 8062,
      "ದುಃ": 8063,
      "ಗ್ರಾಹಕರಿಗೆ": 8064,
      "ನಿಧಿ": 8065,
      "ವರಿಷ್ಠ": 8066,
      "ಶಿಕ್ಷಕ": 8067,
      "ಕನ್ನಡಿಗ": 8068,
      "ಪುಡಿ": 8069,
      "ಏರ್ಪಡ": 8070,
      "ಮಸೀ": 8071,
      "ದಿಯಲ್ಲಿ": 8072,
      "ಸಿಹಿ": 8073,
      "ಚುನಾವಣೆಯ": 8074,
      "??": 8075,
      "ರಾಘವೇ": 8076,
      "ಕೆಪ": 8077,
      "ಾಯಕ": 8078,
      "ಸಾರ್ವಜನಿಕರು": 8079,
      "ವೇರ್": 8080,
      "ಜಗಳ": 8081,
      "ವೆಂಕಟ": 8082,
      "ಯುರೋ": 8083,
      "ಪ್ರೀತಿಯ": 8084,
      "ಬಂದಿದ್ದು": 8085,
      "ಆವರಣದಲ್ಲಿ": 8086,
      "ಸಿಂಧ": 8087,
      "ಒಡೆಯ": 8088,
      "ಟ್ಸ್‌": 8089,
      "ಮಂದಿಗೆ": 8090,
      "ಣಿಯಲ್ಲಿ": 8091,
      "ಪುನೀತ್": 8092,
      "ವಿಲ್ಲದ": 8093,
      "ತೈಲ": 8094,
      "ಪ್ಪಾ": 8095,
      "ರತ್ನ": 8096,
      "ರೌ": 8097,
      "ಂಚಿನ": 8098,
      "ಡಿದು": 8099,
      "ಅಧ್ಯಕ್ಷೆ": 8100,
      "ರಿಯನ್ನು": 8101,
      "ರಿಯಲ್": 8102,
      "ನಿರೋ": 8103,
      "ಡನ್": 8104,
      "ಬ್ಯಾಕ್": 8105,
      "ರೂಪಾ": 8106,
      "ಪೂರ": 8107,
      "ಆಪರೇ": 8108,
      "ಜಾರಕಿ": 8109,
      "ಅಬ್ದ": 8110,
      "ಉದ್ದೇಶದಿಂದ": 8111,
      "ಸುದ್ದಿಗಳು": 8112,
      "ತ್ಯಾಜ್ಯ": 8113,
      "2014": 8114,
      "ಸಿಸ್ಟ": 8115,
      "ವಯಸ್ಸಿನ": 8116,
      "ಸಹಿತ": 8117,
      "ಧರ್ಮದ": 8118,
      "ವಿಭಾಗದಲ್ಲಿ": 8119,
      "ಹಿಂದುಳಿದ": 8120,
      "ES": 8121,
      "ಧ್ವಜ": 8122,
      "ಕ್ಷೇತ್ರಗಳಲ್ಲಿ": 8123,
      "ಲೈಂಗಿಕ": 8124,
      "ಮಾಡಲಾಗುತ್ತದೆ": 8125,
      "ಇರುತ್ತ": 8126,
      "ಗಳಿಗಿಂತ": 8127,
      "ವಿರಾಟ್": 8128,
      "ಬಳಿಯ": 8129,
      "ಪರ್ವ": 8130,
      "ತರಲು": 8131,
      "ನಿಜಕ್ಕೂ": 8132,
      "ಮಾಣಿ": 8133,
      "ಕನ್ನಡದಲ್ಲಿ": 8134,
      "ಭಾಗಿಯ": 8135,
      "ವ್ಯತ್ಯಾಸ": 8136,
      "ಆಧಾರದ": 8137,
      "ಜಪಾ": 8138,
      "ಬ್ಯಾಟಿಂಗ್": 8139,
      "ರಿಕಾ": 8140,
      "ಜವಾಬ್ದಾರ": 8141,
      "ಐತಿಹಾಸಿಕ": 8142,
      "ಬಿಲ್": 8143,
      "ಬೋಧ": 8144,
      "ಕೆಲಸಕ್ಕೆ": 8145,
      "ಆಸ್": 8146,
      "ಗಮ": 8147,
      "ಯೋಜನೆಗೆ": 8148,
      "ಹಾಗೇ": 8149,
      "ಶಾಶ್ವ": 8150,
      "ಶಾಲೆಗೆ": 8151,
      "ಾಗುವುದು": 8152,
      "ಗೊಳಿಸಿದ": 8153,
      "ನಾಲ್ಕ": 8154,
      "ಎಪಿ": 8155,
      "ವಾಗಿಯೂ": 8156,
      "ಇಬ್ಬರೂ": 8157,
      "ಕೆಪಿಸಿಸಿ": 8158,
      "ಗಂಗ": 8159,
      "ch": 8160,
      "ಧೀಶ": 8161,
      "ಮಿತಿ": 8162,
      "ಪದಾರ್ಥ": 8163,
      "ವರ್ಷದಲ್ಲಿ": 8164,
      "ಕಾರ್ಯಕ್ರಮವನ್ನು": 8165,
      "ನಿರ್ಮಾಣಕ್ಕೆ": 8166,
      "300": 8167,
      "ಅಧ್ಯಕ್ಷತೆ": 8168,
      "ಿಸುತ್ತಿದ್ದರು": 8169,
      "2ನೇ": 8170,
      "ದಯಾ": 8171,
      "ಹಮ್ಮದ್": 8172,
      "ನಿಲಯ": 8173,
      "ವಿಳ": 8174,
      "ಹೊಣೆ": 8175,
      "ಅಬ್ದು": 8176,
      "ಮಂಜ": 8177,
      "ಎಲ್ಲವನ್ನೂ": 8178,
      "ತಿನ್ನ": 8179,
      "ಅಂಕಿ": 8180,
      "ಆಗುತ್ತದೆ": 8181,
      "ತಿಳಿಸಿ": 8182,
      "ವೈಶಿಷ್ಟ್ಯ": 8183,
      "ಐಪಿಎಲ್": 8184,
      "ಕುಂದಾಪುರ": 8185,
      "ಪುಷ್": 8186,
      "ಶಸ್ತ್ರ": 8187,
      "ಟ್ಟರ್": 8188,
      "ವರ್ಗಾವಣೆ": 8189,
      "ಂಗಡ": 8190,
      "ವರ್ಡ್": 8191,
      "ಸಾಬೀ": 8192,
      "ವಿಟ್ಟು": 8193,
      "ಮುಖ್ಯವಾಗಿ": 8194,
      "ತಾಣದಲ್ಲಿ": 8195,
      "ಚೇತ": 8196,
      "ಆಗಿತ್ತು": 8197,
      "ಶಿಕ್ಷೆ": 8198,
      "ಮಾಡಿಲ್ಲ": 8199,
      "Next": 8200,
      "ಜಿಲ್ಲೆಗಳಲ್ಲಿ": 8201,
      "38": 8202,
      "ದ್ಯೋ": 8203,
      "ಶೀಲ್": 8204,
      "ಇಳಿದ": 8205,
      "ವಿಡ್": 8206,
      "ರಾತ್ರಿಯ": 8207,
      "ಬಾಡಿಗೆ": 8208,
      "ದಿರುವುದು": 8209,
      "ಅವರೊಂದಿಗೆ": 8210,
      "ಹಾಳ": 8211,
      "ರಾದರು": 8212,
      "ಬೇಸಿಗೆ": 8213,
      "ಭಿವೃದ್ಧಿ": 8214,
      "ಜಗದೀ": 8215,
      "ಜಾರಕಿಹೊ": 8216,
      "ಬಿಂಬ": 8217,
      "ನೋಂದಣಿ": 8218,
      "ತೊಂದರೆಯ": 8219,
      "ಅಪ್ಲಿಕೇಶನ್": 8220,
      "ಅಷ್ಟು": 8221,
      "ುವಾ": 8222,
      "ಶಿಫಾರಸು": 8223,
      "ಎಣ್ಣೆ": 8224,
      "ಸೆರೆ": 8225,
      "ತಾಳ": 8226,
      "ಹೀರೋ": 8227,
      "ೇರಿ": 8228,
      "ಪವರ್": 8229,
      "ಮುನ್ನಡೆ": 8230,
      "ದಾದರೆ": 8231,
      "ಗೋವಿ": 8232,
      "ಇಂಜಿ": 8233,
      "ಪ್ರಾದೇಶಿ": 8234,
      "ತಿದ್ದುಪಡಿ": 8235,
      "ಶೃ": 8236,
      "ಗತ": 8237,
      "ಪವಿ": 8238,
      "ಆಸ್ಪತ್ರೆಯ": 8239,
      "ಇಂಧನ": 8240,
      "ಅಭ್ಯರ್ಥಿಗಳು": 8241,
      "ನಿರಂತರವಾಗಿ": 8242,
      "ಜಲಾಶಯ": 8243,
      "ನಾಗರಿ": 8244,
      "ದಟ್ಟ": 8245,
      "ಸಂಖ್ಯೆಯ": 8246,
      "ಕೋಲಾರ": 8247,
      "ವಿರಿ": 8248,
      "ಕಚೇರಿಯಲ್ಲಿ": 8249,
      "ಧೂ": 8250,
      "ಅವರಿ": 8251,
      "ಅಂಗವಾಗಿ": 8252,
      "ಟೀಂ": 8253,
      "ಕೆಲವೊಮ್ಮೆ": 8254,
      "ಪಡಿಸುವ": 8255,
      "ಬಂದಿರುವ": 8256,
      "ವೆಯ": 8257,
      "ಸದ್ಯಕ್ಕೆ": 8258,
      "ಹೆಗಡೆ": 8259,
      "ಉತ್ತೇ": 8260,
      "ಂಡ್ರ": 8261,
      "ಹಾಕಿದ್ದಾರೆ": 8262,
      "ಮಂಡಳಿಯ": 8263,
      "ಲಿನಿಂದ": 8264,
      "ಕೊಡಿ": 8265,
      "ಬಾಲ್ಯ": 8266,
      "--": 8267,
      "ಕುಳ": 8268,
      "ಉಪಕರಣ": 8269,
      "ಸಿನಿಮಾದಲ್ಲಿ": 8270,
      "ಕ್ರಾಂತಿ": 8271,
      "ಎಲೆಕ್ಟ್ರಿಕ್": 8272,
      "ಅಮೇ": 8273,
      "ಸತತ": 8274,
      "ವಾರಿ": 8275,
      "ತಾಗಿ": 8276,
      "ಆಶ್ಚರ್ಯ": 8277,
      "ಗಂಟೆಗಳ": 8278,
      "ಗಳಾಗಿವೆ": 8279,
      "ಬ್ರಹ್ಮ": 8280,
      "ಷ್ಟೆ": 8281,
      "ಪೌರ": 8282,
      "ಸಾಂಪ್ರ": 8283,
      "ಬಲಿಯ": 8284,
      "ಮುಂದಿ": 8285,
      "ರವರ": 8286,
      "ಗಾಯಗೊಂಡ": 8287,
      "ಹೋಟೆಲ್": 8288,
      "ದುಬೈ": 8289,
      "ಕ್ಕಾ": 8290,
      "ಯಶ್": 8291,
      "ಗೊಂದು": 8292,
      "ಮುಂದುವರಿದ": 8293,
      "ಗ್ರಾಮಾ": 8294,
      "ಮನ್ನಾ": 8295,
      "ಸ್ವತಂತ್ರ": 8296,
      "ಸಂಶೋಧನೆ": 8297,
      "ಸುರಕ್ಷಿತ": 8298,
      "ಬೆಳ್": 8299,
      "ಉದಾಹರಣೆ": 8300,
      "ಕೊಪ್ಪಳ": 8301,
      "ಪ್ರಶ್ನೆಗೆ": 8302,
      "ಮುಖ್ಯಮಂತ್ರಿಯ": 8303,
      "ತಾದ": 8304,
      "ಪಟ್ಟಿದೆ": 8305,
      "ಪ್ರವಾಸೋದ್ಯಮ": 8306,
      "ಜನಾಂಗ": 8307,
      "ಗ್ರಾಹಕರು": 8308,
      "ಸುದ್ದಿಗೋಷ್ಠ": 8309,
      "ಫಿಲ್": 8310,
      "ಬೆಳ್ಳಿ": 8311,
      "ಅನುಮೋದ": 8312,
      "ಭಾಷಾ": 8313,
      "ಪಾಯ": 8314,
      "ಡ್ರಾ": 8315,
      "ವಿಧ್ಯ": 8316,
      "ಡ್ಡೆ": 8317,
      "ರೂಪದ": 8318,
      "ನಾನೇ": 8319,
      "ಗುಣವಾಗಿ": 8320,
      "ಅಸ್": 8321,
      "ಹಾರಿ": 8322,
      "ಸಂಚರ": 8323,
      "ವಿಳಂಬ": 8324,
      "ಮೌಲ್ಯದ": 8325,
      "ಚೂರು": 8326,
      "ವಿಶ್ವಕಪ್": 8327,
      "ಕಾಗೋ": 8328,
      "ವಿಜಯಪುರ": 8329,
      "ta": 8330,
      "ಭಾಯ": 8331,
      "ಎಂಬುವ": 8332,
      "ಮುಸ್ಲಿ": 8333,
      "65": 8334,
      "ಪ್ರಾದೇಶಿಕ": 8335,
      "ವಿಸ್ತ": 8336,
      "ೊಂದನ್ನು": 8337,
      "ಬಾರಿಯ": 8338,
      "ಸಾಲಿನ": 8339,
      "ತಮಿಳುನಾಡು": 8340,
      "ಿಸಬೇಕೆಂದು": 8341,
      "ರಾಜ್ಯಪಾಲ": 8342,
      "ಮಹೋ": 8343,
      "ಸುತ್ತಿ": 8344,
      "ಆಗ್": 8345,
      "ರಿದ್ದರು": 8346,
      "ಮಾನವೀಯ": 8347,
      "ಬ್ಬು": 8348,
      ":-": 8349,
      "ಣಾಧಿಕಾರಿ": 8350,
      "ಆನ್‌ಲೈನ್": 8351,
      "ಈಗಲೂ": 8352,
      "198": 8353,
      "ಜರುಗ": 8354,
      "ಆರಂಭಿಕ": 8355,
      "ಜಿನಲ್ಲಿ": 8356,
      "ಟೇಲ್": 8357,
      "ನಿಮ": 8358,
      "ಹಣದ": 8359,
      "ಂಡೋ": 8360,
      "ಬಹುಮಾನ": 8361,
      "ಮಂಜುನಾಥ": 8362,
      "ಮಾಡುವಾಗ": 8363,
      "ನಕಲಿ": 8364,
      "ಸಾಧ್ಯತೆಯ": 8365,
      "ವದ": 8366,
      "ಅಧಿಕಾರಕ್ಕೆ": 8367,
      "ಳಿಯಲ್ಲಿ": 8368,
      "ಉದಾಹರಣೆಗೆ": 8369,
      "ಠಾಣೆಯಲ್ಲಿ": 8370,
      "ಶರೀ": 8371,
      "ಕಿವಿ": 8372,
      "ಸಮ್ಮೇಳನ": 8373,
      "ಹುದ್ದ": 8374,
      "ಿಸುವುದರಿಂದ": 8375,
      "ವುದು": 8376,
      "ಲಿಟಿ": 8377,
      "ಮಣ್ಯ": 8378,
      "ಸ್ಯಾಂಡ": 8379,
      "ಕಳೆದುಕೊಂಡ": 8380,
      "ಬ್ಬಾ": 8381,
      "ಅಗ್ರ": 8382,
      "ಸ್ನೇಹ": 8383,
      "ನೆಮ್ಮ": 8384,
      "ಹ್ಯ": 8385,
      "ತೆಗೆಯ": 8386,
      "ಸೀಮಿತ": 8387,
      "ನಲ್‌": 8388,
      "ಟ್ರೆ": 8389,
      "ಕತೆಯ": 8390,
      "ಇದ್ದರೂ": 8391,
      "ುವಾಗ": 8392,
      "ಯೋಧ": 8393,
      "ಮೋಹನ್": 8394,
      "ಂದೂ": 8395,
      "ಗಣ್ಯ": 8396,
      "ದೆಹಲಿಯಲ್ಲಿ": 8397,
      "ಕಾಲ್": 8398,
      "ಸ್ಫೋಟ": 8399,
      "ರಿದೆ": 8400,
      "ಹೋಗಲು": 8401,
      "ಸ್‌ನ": 8402,
      "ಲಕ್ಷಾಂತರ": 8403,
      "ಅದರಿಂದ": 8404,
      "ಹುಟ್ಟಿ": 8405,
      "್ಯವ": 8406,
      "ರಿಯಾಗಿ": 8407,
      "ಸೋಂಕಿತರ": 8408,
      "ಲರ್‌": 8409,
      "ಆಮ್ಲ": 8410,
      "ಸೌಧ": 8411,
      "ಕ್ಲಿಕ್": 8412,
      "ಕಿರಣ": 8413,
      "ಕಲ್ಲ": 8414,
      "ಪಾಕ್": 8415,
      "ಟೀಕ": 8416,
      "ವ್ಯವಸ್ಥೆಯನ್ನು": 8417,
      "ಕತ್ತರ": 8418,
      "ಪೂರಕ": 8419,
      "ಸಮೀಕ್ಷೆ": 8420,
      "ನಾತ್ಮಕ": 8421,
      "ಗುಡ್ಡ": 8422,
      "ಗೋಡೆ": 8423,
      "ne": 8424,
      "ಆಕ್ಸಿ": 8425,
      "ಸೃ": 8426,
      "ಿಸಿದ್ದೇವೆ": 8427,
      "ರಷ್ಯಾ": 8428,
      "ಒಪ್ಪಿಗೆ": 8429,
      "ಕಾಂತ": 8430,
      "55": 8431,
      "ಹರಿದು": 8432,
      "ನಂತರದ": 8433,
      "ಂಗಣ": 8434,
      "ಬದಲಾಗ": 8435,
      "ರಾಮನಗರ": 8436,
      "ಡಿದರು": 8437,
      "ಹೇಳಿದ್ದರು": 8438,
      "ವಿಲ್ಲದೆ": 8439,
      "ಸಂಬಂಧಪಟ್ಟ": 8440,
      "ದೊರಕ": 8441,
      "ಾರೋಗ್ಯ": 8442,
      "ಸನ್ನಿವೇಶ": 8443,
      "ಚಮಚ": 8444,
      "ಬಿತ್ತ": 8445,
      "ಬ್ರೆ": 8446,
      "ತಾಯಿಯ": 8447,
      "ರಾಘವೇಂದ್ರ": 8448,
      "ಸ್ಮರ": 8449,
      "ಉದ್ಘಾ": 8450,
      "ಲಂಡ": 8451,
      "ಔಷಧಿ": 8452,
      "ಸಂಕೇ": 8453,
      "ಪಾಕಿಸ್ತಾನದ": 8454,
      "ಸೋಲು": 8455,
      "ಗಟ್ಟಿ": 8456,
      "ಪಿಯು": 8457,
      "ಪಾಸಿಟಿ": 8458,
      "ಗತಿಯ": 8459,
      "ಮಧ್ಯಮ": 8460,
      "ನೋಟು": 8461,
      "ಎಂಬುದರ": 8462,
      "ಜನತೆ": 8463,
      "ಕಪ್‌": 8464,
      "2022": 8465,
      "ಸಲ್ಲಿ": 8466,
      "ನಿಭಾಯ": 8467,
      "ದತ್ತ": 8468,
      "ಸಿನೆ": 8469,
      "ಮುಗಿಯ": 8470,
      "ಹುಲಿ": 8471,
      "ಹಾಸ್ಯ": 8472,
      "ಮಳಿಗೆ": 8473,
      "ಮಿನಿ": 8474,
      "ಉದ್ಯೋಗಿ": 8475,
      "ಏನೋ": 8476,
      "ಅವಶ್ಯಕತೆ": 8477,
      "ಸಮಾರಂಭದಲ್ಲಿ": 8478,
      "ಜಾರಕಿಹೊಳಿ": 8479,
      "ವಣೆಯ": 8480,
      "ುವುದರ": 8481,
      "ಲೈಟ್": 8482,
      "ಕ್ಯಾಮೆರಾ": 8483,
      "ಒಲ": 8484,
      "ಇಳಿ": 8485,
      "ಸ್ಥಾಪನೆ": 8486,
      "ದಾರರು": 8487,
      "ಇಡಿ": 8488,
      "ನೋಡಿದರೆ": 8489,
      "oo": 8490,
      "ತಳ": 8491,
      "ಮನೆಯಿಂದ": 8492,
      "ಏನೆ": 8493,
      "ನುಡಿ": 8494,
      "ಮುಂದುವರಿಯ": 8495,
      "ಬಾಂಗ್": 8496,
      "ಷೇರು": 8497,
      "ಸಹಕಾರಿ": 8498,
      "ಕಾರ್ಮಿಕರ": 8499,
      "2015": 8500,
      "ಮರಿ": 8501,
      "ಾಗಬಹುದು": 8502,
      "ಪಕ್ಷಕ್ಕೆ": 8503,
      "ನೀಡಲಾಗುವುದು": 8504,
      "ಸ್ವರೂಪ": 8505,
      "ಸ್ಟೀ": 8506,
      "ಬಳ್ಳಾಪುರ": 8507,
      "ವರ್ತಿ": 8508,
      "ಉದ್ಘಾಟನೆ": 8509,
      "ಸಂಸ್ಕಾರ": 8510,
      "ಜನರಲ್ಲಿ": 8511,
      "ಸಿಲುಕ": 8512,
      "ದ್ವಿತೀಯ": 8513,
      "ಭಕ್ತರು": 8514,
      "ದೈಹಿಕ": 8515,
      "ಇಲ್ಲವೇ": 8516,
      "ಸಾರ್ವಜನಿಕರ": 8517,
      "ಬಡ್ಡಿ": 8518,
      "ಅತ್ಯಾ": 8519,
      "ರ್ತ": 8520,
      "ಟ್ರ್ಯಾ": 8521,
      "ಕೊಡಗು": 8522,
      "ನೈಸರ್ಗಿಕ": 8523,
      "ಲೆಯನ್ನು": 8524,
      "ಬೆಲೆಯ": 8525,
      "ಮಾಡಲಾಗುತ್ತಿದೆ": 8526,
      "ಸೂಚಿ": 8527,
      "ರಾಷ್ಟ್ರಪತಿ": 8528,
      "ಶಾಂತ್": 8529,
      "ಬಂದಿಲ್ಲ": 8530,
      "ಆರಂಭದಲ್ಲಿ": 8531,
      "ಮುಂಬರುವ": 8532,
      "ಚಿತ್ರಗಳನ್ನು": 8533,
      "ಪಡೆದುಕೊಳ್ಳ": 8534,
      "AD": 8535,
      "ವ್ಯಾಪಾರಿ": 8536,
      "ಪಾಪ": 8537,
      "ಲ್ಯಾಂಡ್": 8538,
      "ಔಟ್": 8539,
      "ಅನಾರೋಗ್ಯ": 8540,
      "ಿಸಬೇಕಾದ": 8541,
      "ರಹಿತ": 8542,
      "ದುಃಖ": 8543,
      "ಆಧಾರ್": 8544,
      "ಶಾಂ": 8545,
      "ಸಾಂಪ್ರದಾಯಿ": 8546,
      "ಹಾನಿಯ": 8547,
      "ಪಡೆದಿದ್ದಾರೆ": 8548,
      "ಮಾರ್ಕೆ": 8549,
      "ಹೆಸರಿನ": 8550,
      "ಸಿಗುವ": 8551,
      "ಸಭೆಗೆ": 8552,
      "ಏಜೆ": 8553,
      "ಶಕ್ತಿಯನ್ನು": 8554,
      "ವೈದ್ಯರ": 8555,
      "ಲ್ಲದೇ": 8556,
      "ಜಾನಪದ": 8557,
      "ಮಾರ್ಗದರ್ಶನ": 8558,
      "ಮಸಾ": 8559,
      "ಬದಲಿಗೆ": 8560,
      "ೊಡನೆ": 8561,
      "ಶತಕ": 8562,
      "ವರಲ್ಲಿ": 8563,
      "ಯೋಜನೆಯಡಿ": 8564,
      "ರವೀ": 8565,
      "ಸಂಸ್ಥ": 8566,
      "ವಿಕಾ": 8567,
      "ಒಬ್ಬರು": 8568,
      "ಜಂಟಿ": 8569,
      "ಮೈಸೂರಿನ": 8570,
      "ಮಾಲಿನ್ಯ": 8571,
      "ನ್ಯಾಷ": 8572,
      "ಜಯಂತಿ": 8573,
      "ಇರುವುದರಿಂದ": 8574,
      "ಟಿವ್": 8575,
      "ನಿಷ್": 8576,
      "ಹಸ್ತ": 8577,
      "ಪಣೆ": 8578,
      "ಬಿಟ್ಟಿ": 8579,
      "ನಿರ್ವಾಹ": 8580,
      "ಮೆಂಟ್‌": 8581,
      "ಚಳ": 8582,
      "ತಂಡವನ್ನು": 8583,
      "ದ್ರೋ": 8584,
      "ಣ್‌": 8585,
      "ಿಸಿದ್ದೇನೆ": 8586,
      "ಕವನ": 8587,
      "ಪಡಿಸಿದ": 8588,
      "ಲೆಕ್ಕಾ": 8589,
      "ಧೋನಿ": 8590,
      "ತೆಲುಗು": 8591,
      "ಸರಬ": 8592,
      "ಅಭಿನಯದ": 8593,
      "ಉತ್ಸಾಹ": 8594,
      "ಇರುವುದಿಲ್ಲ": 8595,
      "್ರೂ": 8596,
      "ನಮ್ಮಲ್ಲಿ": 8597,
      "ಅವನಿಗೆ": 8598,
      "ಸಂವಹ": 8599,
      "ಡಿಪಿ": 8600,
      "ರಾಧಿ": 8601,
      "ಹಗರ": 8602,
      "ಟ್‌ಗೆ": 8603,
      "ಹೊಂದಿದ್ದಾರೆ": 8604,
      "ಅಜ್": 8605,
      "ಭಜ": 8606,
      "ಮೌನ": 8607,
      "ಆನೆ": 8608,
      "ಬೆನ್ನಲ್ಲೇ": 8609,
      "ಏಕದಿನ": 8610,
      "ಡಿಸ್": 8611,
      "ಕ್ಷಮ": 8612,
      "ವಸ್ತುಗಳ": 8613,
      "ಅಂತರರಾಷ್ಟ್ರೀಯ": 8614,
      "ಚಿದ": 8615,
      "ಡೀಸೆಲ್": 8616,
      "ಸೇರ್ಪಡೆ": 8617,
      "ಆಶೀರ್": 8618,
      "ಹುಡುಗಿಯ": 8619,
      "ಹೊಟ್ಟೆ": 8620,
      "ಸ್ನೇಹಿತರ": 8621,
      "ವೇಶ್ವರ": 8622,
      "ಘಟನೆಯ": 8623,
      "ವಿಧಿ": 8624,
      "ಯೋಜನೆಗಳನ್ನು": 8625,
      "ರಿಲೀಸ್": 8626,
      "ಕಂಪನಿಗಳು": 8627,
      "ದಿಗೆ": 8628,
      "ಲೇಬೇಕು": 8629,
      "ಬೆಂಗಳೂರಿಗೆ": 8630,
      "ಕೊಟ್ಟಿದ್ದಾರೆ": 8631,
      "ಹೊಸದಾಗಿ": 8632,
      "ಮಾಡುವಂತೆ": 8633,
      "ಸಂವಾದ": 8634,
      "ಗತ್ಯ": 8635,
      "ಮಾಸ್ಕ್": 8636,
      "ಮುಂದುವರೆ": 8637,
      "ಜಿಯೋ": 8638,
      "ಉರು": 8639,
      "ದೇಶಾ": 8640,
      "ಯುವಿ": 8641,
      "ಕೆಲವೊಂದು": 8642,
      "ಲೋಕಸಭೆ": 8643,
      "ಡಿಂಗ್": 8644,
      "ಅಂತಾ": 8645,
      "ಶನ್‌": 8646,
      "JE": 8647,
      "ಗಮನಕ್ಕೆ": 8648,
      "ಗೆದ್ದು": 8649,
      "ರೆಲ್ಲ": 8650,
      "ಆಗಿದ್ದ": 8651,
      "ಬಿಸ": 8652,
      "ಷನ್‌": 8653,
      "ಸಾಕ್ಷಿ": 8654,
      "ಿಸಿದರೂ": 8655,
      "ಆಶಾ": 8656,
      "ಫೈನಲ್": 8657,
      "ಗೊಳಿಸಲಾಗಿದೆ": 8658,
      "ಫೋರ್": 8659,
      "ಶಾರ": 8660,
      "ಹೊಂದಿದ್ದು": 8661,
      "ತೀರಾ": 8662,
      "ಗಂಡು": 8663,
      "ರಮೇ": 8664,
      "ದೇಶಕ್ಕೆ": 8665,
      "ಕೂಡಿ": 8666,
      "ಡಿಯನ್ನು": 8667,
      "ಷರ": 8668,
      "ಪಕ್ಷಿ": 8669,
      "ಧ್ಯಾಪ": 8670,
      "ಲಿಕೆ": 8671,
      "ಸವಾರ": 8672,
      "ಆದಾಗ್ಯೂ": 8673,
      "ಮೇರೆಗೆ": 8674,
      "ಮಾಡಲಾಗುವುದು": 8675,
      "ಪಟ": 8676,
      "EES": 8677,
      "ಗೋಪಾಲ": 8678,
      "ಆಳ್": 8679,
      "ಪ್ರೇಮಿ": 8680,
      "ದೇವಸ್ಥಾನದ": 8681,
      "ಫಲಾ": 8682,
      "ತೊಡಗಿ": 8683,
      "ೇನೆ": 8684,
      "ANJE": 8685,
      "EESANJE": 8686,
      "ಬಹುಶಃ": 8687,
      "ಇಲ್ಲಿಗೆ": 8688,
      "ಪ್ರತಿನಿಧ": 8689,
      "ಇವರಿಗೆ": 8690,
      "ಸಿಸ್": 8691,
      "ಜ್ಞಾನಿಕ": 8692,
      "ಲವ್": 8693,
      "ಗೌರಿ": 8694,
      "ಸುದ್ದಿಗಾರ": 8695,
      "ಬೆಳಕು": 8696,
      "ಪುಣ್ಯ": 8697,
      "ಲಿಮಿ": 8698,
      "?'": 8699,
      "ನಿರ್ದೇಶನದ": 8700,
      "ಶೌಚಾ": 8701,
      "ಪುತ್ತೂರು": 8702,
      "ಷ್ಕರ": 8703,
      "ಸ್ನಾನ": 8704,
      "ಪ್ರಜಾಪ್ರಭು": 8705,
      "ಕುರಿತಂತೆ": 8706,
      "ಬೆರೆ": 8707,
      "ಸ್ಥಳಾಂತರ": 8708,
      "ಮಹೇಶ್": 8709,
      "ಗಂಟೆಯ": 8710,
      "ಟಾಟಾ": 8711,
      "ವತ್": 8712,
      "ಬ್ರಾಹ್": 8713,
      "ಡ್ಡು": 8714,
      "ಆರೋಗ್ಯದ": 8715,
      "ಸಾದ": 8716,
      "ನಮೂ": 8717,
      "ಬಯಸುವ": 8718,
      "ಬಂಗಾರ": 8719,
      "ಬೆಲ್": 8720,
      "ಂಜ್": 8721,
      "ಬೆಳ್ತಂಗ": 8722,
      "ಶೌಚಾಲಯ": 8723,
      "ಸಿಲಿ": 8724,
      "ಗಾಂ": 8725,
      "ಕಂದಾಯ": 8726,
      "ಒಡೆ": 8727,
      "ಶ್ರೀನಿ": 8728,
      "ನಿರೋಧಕ": 8729,
      "hr": 8730,
      "ವಧ": 8731,
      "ಬದಲಾಗಿ": 8732,
      "ಕಾಣಬಹುದು": 8733,
      "ವಿನಲ್ಲಿ": 8734,
      "ಸಮಸ್ಯೆಯ": 8735,
      "ವಲಯದ": 8736,
      "ವಿಸ್ತರಣೆ": 8737,
      "ನಾನಾ": 8738,
      "ಶೂಟಿಂಗ್": 8739,
      "ಆಶಯ": 8740,
      "ಮೆಣ": 8741,
      "ಈಗಿನ": 8742,
      "ಪರೀಕ್ಷಾ": 8743,
      "ಮಿಲಿ": 8744,
      "ುತ್ತಿದ್ದರೆ": 8745,
      "ಲೀಟರ್": 8746,
      "ಅರವಿ": 8747,
      "ಶಿಕ್ಷಕರು": 8748,
      "44": 8749,
      "ಮೆಟ್ರೋ": 8750,
      "ಇಸ್ಲಾ": 8751,
      "ಚಲಾಯ": 8752,
      "ಬಾಗಲ": 8753,
      "ಲಂಕಾ": 8754,
      "ಕಚ್ಚ": 8755,
      "ಪಥ": 8756,
      "ಅಭಿಪ್ರಾಯಪಟ್ಟ": 8757,
      "ಗೋವಾ": 8758,
      "ಮ್ಯೂ": 8759,
      "ಪಡೆಯಬಹುದು": 8760,
      "ಪರಿಶಿಷ್ಟ": 8761,
      "ಡ್ಸ್": 8762,
      "'.": 8763,
      "ಮಲ್ಲಿಕಾರ್": 8764,
      "ಸಾಲಿನಲ್ಲಿ": 8765,
      "ಬೆಳಕಿಗೆ": 8766,
      "ಲಿಂಕ್": 8767,
      "ತಿರಸ್": 8768,
      "ಯಾರಿಗೂ": 8769,
      "ಶುಭಾ": 8770,
      "ಧಿಕಾರಿಗಳು": 8771,
      "150": 8772,
      "ಪವಿತ್ರ": 8773,
      "ತಹಶೀಲ್": 8774,
      "ಬ್ಲ್": 8775,
      "ವಳಿಯ": 8776,
      "ಉಪಯುಕ್ತ": 8777,
      "ಮೀಸಲಾತಿ": 8778,
      "ಸೂತ್ರ": 8779,
      "ಟಿಸಿ": 8780,
      "ಸಿಕ್ಕಿದೆ": 8781,
      "ಪದ್ಮ": 8782,
      "ದಿನಾಚರಣೆ": 8783,
      "ಹಂಚಿಕೆ": 8784,
      "ಒಳಗೊಂಡ": 8785,
      "ಅಕ್ಕಿ": 8786,
      "ಅಶ್": 8787,
      "ಯಶಸ್ಸು": 8788,
      "ಟಿಗೆ": 8789,
      "ಮಾಡುತ್ತೇವೆ": 8790,
      "ಮಹೋತ್ಸವ": 8791,
      "ಭದ್ರತೆ": 8792,
      "೧೮": 8793,
      "ಮೀಡಿಯಾ": 8794,
      "ಸಮಸ್ಯೆಗಳು": 8795,
      "ಪ್ರಕರಣಕ್ಕೆ": 8796,
      "ನಿಗೂ": 8797,
      "ಇರಾ": 8798,
      "it": 8799,
      "ಸಹಕರ": 8800,
      "ಮಿನ್": 8801,
      "ಂಟರ್‌": 8802,
      "ಬಂದರು": 8803,
      "ಕಾಮಗಾರ": 8804,
      "ಸಂಯೋಜ": 8805,
      "ಕಬ್ಬಿ": 8806,
      "ತಂದೆಯ": 8807,
      "ಬಾಳೆ": 8808,
      "ಮಗಳೂರು": 8809,
      "ಕೈಯಲ್ಲಿ": 8810,
      "ಅಸ್ತಿತ್ವ": 8811,
      "ಪುನರ್": 8812,
      "ಕ್ಯು": 8813,
      "ಗಿದ್ದ": 8814,
      "ಕಿತ್ತ": 8815,
      "ವಿಮರ್ಶೆ": 8816,
      "ವಾರದಲ್ಲಿ": 8817,
      "ವೆಚ್ಚದಲ್ಲಿ": 8818,
      "ರ್ಯಾ": 8819,
      "ವಲ್": 8820,
      "ಬರೀ": 8821,
      "ಕ್ರಿಯಾ": 8822,
      "ಂಚ್": 8823,
      "ನೀರಿನಲ್ಲಿ": 8824,
      "ಸ್ಥಾ": 8825,
      "ಆದರ್ಶ": 8826,
      "ಟ್ಟುಕೊಂಡು": 8827,
      "ವಾಟ್": 8828,
      "ಯೋಗ್ಯ": 8829,
      "ಬಡಾ": 8830,
      "ಬುಡ": 8831,
      "ಕಡಾ": 8832,
      "ಿಸುತ್ತಿದ್ದು": 8833,
      "ಅಂಬೇಡ್ಕರ್": 8834,
      "ಿಸುತ್ತಾನೆ": 8835,
      "ದೆಹಲಿಯ": 8836,
      "ದ್‌": 8837,
      "ತಿರುವ": 8838,
      "ೇತರ": 8839,
      "ಸಂತಸ": 8840,
      "ವೃತ್ತಿಪರ": 8841,
      "ಬೆದರಿಕೆ": 8842,
      "ಕೇಂದ್ರದಲ್ಲಿ": 8843,
      "ಸಂಗಾ": 8844,
      "ಕೊನೆಗೆ": 8845,
      "ಸುವರ್ಣ": 8846,
      "ಕಾರ್ಮಿಕರು": 8847,
      "ವಿಷ್ಣು": 8848,
      "ಆಂತ": 8849,
      "ಸೆಳೆದ": 8850,
      "ಅವಿ": 8851,
      "ಂತಿದೆ": 8852,
      "ತುಪ್ಪ": 8853,
      "ವಿರುದ್ದ": 8854,
      "ಧಾನ್ಯ": 8855,
      "ತೆಗೆದುಕೊಂಡ": 8856,
      "ನೀವೇ": 8857,
      "ಜಾಲತಾಣದಲ್ಲಿ": 8858,
      "ಬರಲಿದೆ": 8859,
      "ಚಳಿ": 8860,
      "ರಾಣಿ": 8861,
      "ಗೋವಿಂದ": 8862,
      "ಮಂಟ": 8863,
      "ಸ್ಥಾನದ": 8864,
      "ಸಿಗುತ್ತದೆ": 8865,
      "ತಡೆಗಟ್ಟ": 8866,
      "ರಹಸ್ಯ": 8867,
      "ಪಬ್": 8868,
      "ಚೇತನ": 8869,
      "ರಜೆ": 8870,
      "ಒಳಗೊಂಡಿದೆ": 8871,
      "ಪೋಷಕರು": 8872,
      "ಲೆಂಡ್‌": 8873,
      "ಚಿಕ್ಕಮಗಳೂರು": 8874,
      "47": 8875,
      "ಸಾಂಕ್ರಾ": 8876,
      "ಉತ್ಪಾದನಾ": 8877,
      "ವಾಗಬಹುದು": 8878,
      "ಕಲಬುರಗಿ": 8879,
      "ಮಳ": 8880,
      "ಶ್ರದ್ಧ": 8881,
      "ದಷ್ಟು": 8882,
      "ರಾಯ್": 8883,
      "ವೇಗವಾಗಿ": 8884,
      "ನಡೆಯಲಿರುವ": 8885,
      "ಮರದ": 8886,
      "ಸ್ನೇಹಿತ": 8887,
      "ಪೋರ್ಟ್": 8888,
      "ಕಂಡಿ": 8889,
      "ಚೂ": 8890,
      "ತಾನೇ": 8891,
      "ರಾಜ್ಯೋತ್ಸವ": 8892,
      "ಗೀತೆ": 8893,
      "ಸಂಪಾದಿಸಿ": 8894,
      "ಆಫ್ರಿಕಾ": 8895,
      "ಪೂರ್ತಿ": 8896,
      "ಇವೆಲ್ಲ": 8897,
      "ತೇಜ": 8898,
      "ಸದ್ದು": 8899,
      "ನ್ನೆಲ್ಲ": 8900,
      "ನಾಳ": 8901,
      "ಪ್ರತಿಭಟನಾ": 8902,
      "ಸಬ್": 8903,
      "೧೫": 8904,
      "ಸ್ಕರ": 8905,
      "ಮೇಶ್ವರ": 8906,
      "ಹಳೆ": 8907,
      "ಕುಟುಂಬಕ್ಕೆ": 8908,
      "ಮೀರಿ": 8909,
      "ಘನ": 8910,
      "ಿಸಲಿ": 8911,
      "ಗ್ರಾಮಸ್ಥರು": 8912,
      "ನಿರೀಕ್ಷಿತ": 8913,
      "ರಾಶಿಯ": 8914,
      "ಲಿಂಗಾಯ": 8915,
      "ರಾಜ್ಯಕ್ಕೆ": 8916,
      "ವರ್ಷಕ್ಕೆ": 8917,
      "ಿಸುತ್ತಿವೆ": 8918,
      "ಮರಳಿ": 8919,
      "ಶ್ರೀಮಂತ": 8920,
      "ಮುಂಭಾಗ": 8921,
      "ಪರಿಹರ": 8922,
      "ವರ್ಕ್": 8923,
      "ಕಸ್": 8924,
      "39": 8925,
      "ಹೆಲ್": 8926,
      "ಕಾರ್ಯಕ್ರಮಕ್ಕೆ": 8927,
      "ನೀಡುವುದು": 8928,
      "ಹಳ್ಳಿಯ": 8929,
      "ಕರೋ": 8930,
      "ಏನಾದರೂ": 8931,
      "ಮರಳ": 8932,
      "ಜನಪ್ರತಿನಿಧಿ": 8933,
      "ಕುಂ": 8934,
      "ಆಘಾತ": 8935,
      "ದಿನಗಳು": 8936,
      "ಕಂಪ್ಯೂಟರ್": 8937,
      "ಪ್ಯಾಕೇ": 8938,
      "ಸೈನಿ": 8939,
      "ಗುರುತಿಸಿ": 8940,
      "ಸಾಂಕ್ರಾಮಿಕ": 8941,
      "ದುಷ್": 8942,
      "ನೆಟ್‌": 8943,
      "ನೀಡಲಾಗುತ್ತದೆ": 8944,
      "ರುವುದಕ್ಕೆ": 8945,
      "ಓಡ": 8946,
      "ಗ್ರೂ": 8947,
      "ದಳ": 8948,
      "ಊರು": 8949,
      "ಹೇಳಿದ್ದ": 8950,
      "ಗರ್ಭಿ": 8951,
      "ಸಮೂ": 8952,
      "ಸಿರಿ": 8953,
      "ತಿಳಿಸಿವೆ": 8954,
      "ನಗದು": 8955,
      "ಬಾಂಗ್ಲಾ": 8956,
      "ಸಂಘಟನೆಯ": 8957,
      "ನರಸಿಂಹ": 8958,
      "ಗ್ರಾಮಾಂತರ": 8959,
      "ಕಮಲ": 8960,
      "ಉತ್ಪಾದನೆ": 8961,
      "ನೇಮಕಾತಿ": 8962,
      "ಕೈಗಾರಿಕಾ": 8963,
      "ರಣೆ": 8964,
      "ಲೀಗ್": 8965,
      "ಬಿಹಾರ": 8966,
      "ರಾಜ್ಯಗಳ": 8967,
      "ಪ್ರಸ್ತಾವ": 8968,
      "ಹಾರೈ": 8969,
      "ವೈವಿಧ್ಯ": 8970,
      "ಜ್ವರ": 8971,
      "ಎದುರಾಗ": 8972,
      "ವಿಯನ್ನು": 8973,
      "ನಿರ್ಲಕ್ಷ್ಯ": 8974,
      "ಗುಜರಾತ್": 8975,
      "ಕೊಲ್ಲ": 8976,
      "ಪದಾ": 8977,
      "ೀರ": 8978,
      "ಕೋರಿ": 8979,
      "ಉದ್ಯಾನ": 8980,
      "ಅನುಗುಣವಾಗಿ": 8981,
      "ದಾಗ": 8982,
      "ವಿಪ": 8983,
      "ಈಶ್ವರಪ್ಪ": 8984,
      "ಸಂಸ್ಥೆಯು": 8985,
      "ರಾಜೇಶ್": 8986,
      "ಪದ್ಧತಿ": 8987,
      "ಆಕಾಶ": 8988,
      "ಗಳಲ್ಲಿನ": 8989,
      "ಆಗಿದ್ದಾರೆ": 8990,
      "ಕ್ಷೇತ್ರಕ್ಕೆ": 8991,
      "ಕಿಚ್ಚ": 8992,
      "ಿಸುವುದನ್ನು": 8993,
      "ಸರ್‌": 8994,
      "ಹೋದರೆ": 8995,
      "ಸಾಂಪ್ರದಾಯಿಕ": 8996,
      "ಏರ್‌": 8997,
      "ಲಿನ್": 8998,
      "ಅಶ್ವ": 8999,
      "ಆಕ್ಷೇಪ": 9000,
      "ಲೀನ": 9001,
      "ಂಕಾ": 9002,
      "ಬುದ್ಧ": 9003,
      "ತಿಂಡಿ": 9004,
      "ಪ್ರಾಯೋ": 9005,
      "ಮರಳು": 9006,
      "ಸಂವಹನ": 9007,
      "ನಿಜವಾಗಿಯೂ": 9008,
      "ಹಾರ್ದ": 9009,
      "ುತ್ತಿದ್ದೇವೆ": 9010,
      "ಹೆಚ್ಚಿ": 9011,
      "ಕೂದಲು": 9012,
      "ಸ್ಥಿತಿಯಲ್ಲಿ": 9013,
      "ವರ್ಷದಿಂದ": 9014,
      "ಸಿದರೆ": 9015,
      "ವಿಟ": 9016,
      "ದ್ವೇಷ": 9017,
      "ಪಿಕ್": 9018,
      "ನುಭವಿ": 9019,
      "ಅವರಲ್ಲಿ": 9020,
      "ಚಂಡ": 9021,
      "ಿಸೋ": 9022,
      "ಮೂಲಭೂತ": 9023,
      "ದ್ವೀ": 9024,
      "ಇಂದಿಗೂ": 9025,
      "ಪಂಡಿ": 9026,
      "ರಘು": 9027,
      "ುತ್ತಿದ್ದೇನೆ": 9028,
      "ಟ್ರಂಪ್": 9029,
      "ಕೆಡ": 9030,
      "ೆಲ್ಲಾ": 9031,
      "ಮುಖಪುಟ": 9032,
      "ಮಾಡಿತ್ತು": 9033,
      "ಸಭಾಂಗಣದಲ್ಲಿ": 9034,
      "ಪುನಃ": 9035,
      "ಹಿರೇ": 9036,
      "ಲಕ್ಷಣಗಳು": 9037,
      "ನಡ": 9038,
      "ಎಂದಿಗೂ": 9039,
      "ಲೆಕ್ಕಾಚಾರ": 9040,
      "2013": 9041,
      "ತುತ್ತ": 9042,
      "ಜೆಯ": 9043,
      "ೊಂದೆಡೆ": 9044,
      "ಹಾಸಿಗೆ": 9045,
      "ದಲಿ": 9046,
      "ಉಪ್ಪಿ": 9047,
      "ವ್ಯಕ್ತಿತ್ವ": 9048,
      "ಅಲಿ": 9049,
      "ವಕಾಶ": 9050,
      "ಹೊಟ್ಟ": 9051,
      "ಸೂಚಿಸಿದರು": 9052,
      "ಕಾಂತ್": 9053,
      "ರಾಜ್ಯಾಧ್ಯಕ್ಷ": 9054,
      "ಚರಂಡಿ": 9055,
      "ಅತ್ತ": 9056,
      "ಸ್ಥಾನದಲ್ಲಿ": 9057,
      "ನೆರವೇರ": 9058,
      "ಅಂಶಗಳನ್ನು": 9059,
      "am": 9060,
      "ೊಂದರಲ್ಲಿ": 9061,
      "ಪರ್‌": 9062,
      "ಸುರಿಯ": 9063,
      "ಳ್ಳೆ": 9064,
      "ಜಾಮೀನು": 9065,
      "ಸೇವೆಯನ್ನು": 9066,
      "ಟೆಲಿ": 9067,
      "ಭವನದಲ್ಲಿ": 9068,
      "೧೨": 9069,
      "ಪ್ರೈ": 9070,
      "ದಾದರೂ": 9071,
      "ದಯವಿಟ್ಟು": 9072,
      "ಅಖಿ": 9073,
      "ಗ್ರೇ": 9074,
      "ವಾದು": 9075,
      "ಹುಡುಗಿ": 9076,
      "ing": 9077,
      "ಹರಣ": 9078,
      "ತಡೆಯಲು": 9079,
      "ಗೆಲುವಿನ": 9080,
      "ಭಕ್ತಿ": 9081,
      "ಸ್ಸು": 9082,
      "ಮಾಹಿತಿಯ": 9083,
      "ಿಸಿಕೊಳ್ಳಬೇಕು": 9084,
      "ಪಲ್": 9085,
      "ಹಗ": 9086,
      "ದರು": 9087,
      "ಶೇಕಡಾ": 9088,
      "ಧೀನ": 9089,
      "ಜಿಗೆ": 9090,
      "ವಿಕೆಯ": 9091,
      "ಮುಂದಾಗಿದೆ": 9092,
      "ಗಳೆಲ್ಲ": 9093,
      "ಕಂಠ": 9094,
      "ಸಂತೋ": 9095,
      "ಲಿಯಲ್ಲಿ": 9096,
      "ತರಿಗೆ": 9097,
      "ಅಂಶಗಳು": 9098,
      "ಉಚಿತವಾಗಿ": 9099,
      "ನಕ್ಷ": 9100,
      "ನಿಸ್": 9101,
      "ಹೊಡೆಯ": 9102,
      "ವಾಗ್ದ": 9103,
      "ಸಸ್": 9104,
      "ಿಯಾಗಿದ್ದ": 9105,
      "ಯುವತಿಯ": 9106,
      "ರ್ಜನ್ಯ": 9107,
      ".!": 9108,
      "ವಿವಿ": 9109,
      "ಪಾಂಡ": 9110,
      "ವಿಜೇ": 9111,
      "ಪಾನ": 9112,
      "ದೌರ್ಜನ್ಯ": 9113,
      "ಗೊತ್ತು": 9114,
      "ವಣಿ": 9115,
      "ಕ್ಯಾಪ್": 9116,
      "ೊಂದಿ": 9117,
      "ವರ್ಧ": 9118,
      "ಪ್ರಬಲ": 9119,
      "ಗೊಬ್ಬರ": 9120,
      "ಕಾರಣದಿಂದ": 9121,
      "ಚಕ": 9122,
      "ಲಾಲ್": 9123,
      "ನೆಸ್": 9124,
      "ವ್ಯಾಯಾ": 9125,
      "ಕೇಸ್": 9126,
      "ಮೆಟ್ಟಿ": 9127,
      "ಗಂಭೀರವಾಗಿ": 9128,
      "ಶಿವಣ್ಣ": 9129,
      "೨೦೦": 9130,
      "ಮಿಕ್": 9131,
      "ಮಾತುಗಳು": 9132,
      "ಸಾಯನಿಕ": 9133,
      "ಬಂಗಾಳ": 9134,
      "ತಿಮ್ಮ": 9135,
      "ಸಿನಿಮಾಗಳ": 9136,
      "ಮಹಿಳೆಯರಿಗೆ": 9137,
      "ಮುಕ್ತಾಯ": 9138,
      "ಕರೆದೊ": 9139,
      "ತಜ್ಞರು": 9140,
      "ಬೆಳ್ತಂಗಡಿ": 9141,
      "ಚೀನಾದ": 9142,
      "ಸೆಟ್": 9143,
      "ಕಿರಿಯ": 9144,
      "ಹೆಚ್ಚಾಗಿದೆ": 9145,
      "ಸ್‌ಗೆ": 9146,
      "ಇಲ್ಲದಿದ್ದರೆ": 9147,
      "ಮಕ್ಕಳಿ": 9148,
      "ಿಸದೇ": 9149,
      "ಸುಳ್ಯ": 9150,
      "ನಿರೀಕ್ಷೆಯ": 9151,
      "ಪಾತ್ರದಲ್ಲಿ": 9152,
      "ಛಾ": 9153,
      "ಅಶೋಕ್": 9154,
      "ಮ್ರಾ": 9155,
      "ಿಯಾಗಿರುವ": 9156,
      "ಲ್‌ನ": 9157,
      "ಈತ": 9158,
      "ಭೇದ": 9159,
      "ನಿರ್ಮಾಪಕ": 9160,
      "ಕೊಡಲು": 9161,
      "ೊಬ್ಬರ": 9162,
      "ಹಿಂಸಾ": 9163,
      "ಬಂದಿದ್ದಾರೆ": 9164,
      "್ರೋ": 9165,
      "ಸಿಲುಕಿ": 9166,
      "ಶ್ಯಾ": 9167,
      "ಬಳಸಿಕೊಂಡು": 9168,
      "ವೆಂಕಟೇ": 9169,
      "ಇಂಗ್ಲಿಷ್": 9170,
      "ಸೆಸ್": 9171,
      ",\"": 9172,
      "ಜಮೀನು": 9173,
      "ಉತ್ತಮವಾಗಿ": 9174,
      "ಉದ್ಘಾಟಿಸಿ": 9175,
      "ತ್ಯಾಗ": 9176,
      "ಕ್ರೈ": 9177,
      "ಟ್ರೇ": 9178,
      "ಗಣೇಶ್": 9179,
      "ಕಾಲೇಜಿನಲ್ಲಿ": 9180,
      "ವಿಶ್ರಾ": 9181,
      "ಮಳೆಯಿಂದ": 9182,
      "46": 9183,
      "ಕೊಂಚ": 9184,
      "ಆಧಾರಿತ": 9185,
      "ಚಾರ್ಜ್": 9186,
      "ಸಿದ್ಧಾ": 9187,
      "ಅರ್ಜು": 9188,
      "ದೇವಾಲಯದ": 9189,
      "ನಾಮಪತ್ರ": 9190,
      "ರೇವ": 9191,
      "ಕ್ರೇ": 9192,
      "ಂಚು": 9193,
      "ಇಬ್ಬರ": 9194,
      "ಟಿ20": 9195,
      "ಬಂದಿತ್ತು": 9196,
      "ುವುದಾದರೆ": 9197,
      "ಸಾರ್ವ": 9198,
      "ಪೈಪೋ": 9199,
      "ಇರಬಹುದು": 9200,
      "ಮಾಸಿಕ": 9201,
      "ರಶ್": 9202,
      "ಐಸಿಸಿ": 9203,
      ".)": 9204,
      "ತಿಯಾಗಿ": 9205,
      "ತಪಾಸಣೆ": 9206,
      "ಹೇಳಲಾಗಿದೆ": 9207,
      "ಮಾರುತಿ": 9208,
      "ಬಿಕ್ಕ": 9209,
      "ಹಾಜರಾಗ": 9210,
      "ವಿದ್ದು": 9211,
      "ಸರಬರಾಜು": 9212,
      "ಮೋಸ": 9213,
      "ಲ್‌ಗೆ": 9214,
      "ಗುಣಮುಖ": 9215,
      "ವಿಕಿ": 9216,
      "ಹೆಮ್ಮ": 9217,
      "ಛಾಯ": 9218,
      "ಜಗತ್ತ": 9219,
      "ೆಂದು": 9220,
      "ಒಕ್ಕೂಟ": 9221,
      "ಪತ್ರಿಕಾಗೋ": 9222,
      "ಮ್ಯಾನೇ": 9223,
      "ಮಿಶ್ರಣ": 9224,
      "ಲ್ಲಿನ": 9225,
      "ಟ್‌ಗಳು": 9226,
      "ಎಸೆತ": 9227,
      "ಬ್ಲಾಕ್": 9228,
      "ಬೋರ್ಡ್": 9229,
      "ಯಾರಾದರೂ": 9230,
      "ಹುಡುಕಾಟ": 9231,
      "ವೇದಿಕೆಯ": 9232,
      "ಪರೀಕ್ಷೆಗೆ": 9233,
      "49": 9234,
      "ಕಾರ್ಖಾ": 9235,
      "ಲ್ವಾ": 9236,
      "ಮಾತಿನ": 9237,
      "ಾಗ್ರಾ": 9238,
      "ಹೆಚ್ಚಿಸಲು": 9239,
      "ಟ್ರೈ": 9240,
      "ಚಿರ": 9241,
      "ಬಾಕ್ಸ್": 9242,
      "ಜೊತೆಯ": 9243,
      "ಿದ್ದಲ್ಲಿ": 9244,
      "ಹೊತ್ತಿಗೆ": 9245,
      "ಭಟ್ಟ": 9246,
      "ಕ್ರೀಡೆ": 9247,
      "ವಲಯದಲ್ಲಿ": 9248,
      "ಒತ್ತು": 9249,
      "ಕಾಪಾಡಿ": 9250,
      "ಮಾರ್ಕೆಟಿಂಗ್": 9251,
      "ಇನ್ನಿತರ": 9252,
      "ಕಾದಂಬರಿ": 9253,
      "ರಾಮಚಂದ್ರ": 9254,
      "ಆಫೀ": 9255,
      "ಹೊಂದಾ": 9256,
      "ಇಂಜಿನಿಯ": 9257,
      "ಸರಿಯಲ್ಲ": 9258,
      "ಮಿಲಿಯನ್": 9259,
      "ಅಲ": 9260,
      "ಅಲ್ಲಿಗೆ": 9261,
      "ಮಂಡಲ": 9262,
      "ಸಲ್ಲಿಸಿದರು": 9263,
      "ಫ್‌": 9264,
      "ಏಷ್ಯಾ": 9265,
      "ಹೈಕಮಾ": 9266,
      "ಬಟ್ಟ": 9267,
      "ಪ್ಲಾಸ್ಟಿಕ್": 9268,
      "ಸುಳಿ": 9269,
      "ಷ್ಣಾ": 9270,
      "ಮೇಯರ್": 9271,
      "ದೈವ": 9272,
      "ಹೇಳಲು": 9273,
      "ರವೀಂದ್ರ": 9274,
      "ಕ್‌ನಲ್ಲಿ": 9275,
      "ಿದ್ದೀರಿ": 9276,
      "ಪರಿಣ": 9277,
      "ಬೆಳ್ಳ": 9278,
      "ಶಿಷ್ಯ": 9279,
      "ಸ್ಟಿಂಗ್": 9280,
      "ಹಾಗಾದರೆ": 9281,
      "ಮಾಲ್": 9282,
      "ವಿನ್": 9283,
      "ಭಾಗವಹಿಸಿದ್ದರು": 9284,
      "ನಗರಸಭೆ": 9285,
      "ಿಸಬೇಕಾಗುತ್ತದೆ": 9286,
      "ಂಜನ": 9287,
      "ರೋದು": 9288,
      "ಇವತ್ತು": 9289,
      "ಆಡಿ": 9290,
      "ಕಾಲಕ್ಕೆ": 9291,
      "ಂಬರ್‌": 9292,
      "ಮಾತನಾಡುವ": 9293,
      "ಹಕ್ಕಿ": 9294,
      "ಒಂದಿ": 9295,
      "ಪ್ರೀಮಿಯ": 9296,
      "ಗ್ರಾಹಕ": 9297,
      "ಚಿಕ್ಕಬಳ್ಳಾಪುರ": 9298,
      "ದಾಖಲಾಗಿದೆ": 9299,
      "ನಗು": 9300,
      "ವಿಚಿತ್ರ": 9301,
      "ಹೊಳೆ": 9302,
      "ಮಡಿಕೇರಿ": 9303,
      "ಗಳಂತೆ": 9304,
      "ಆನ್‌ಲೈ": 9305,
      "ಕನಕ": 9306,
      "ನೆನೆ": 9307,
      "ತನಿ": 9308,
      "ಒಂದೊಂದು": 9309,
      "ಪಾರ್ಟಿ": 9310,
      "ತಮ್ಮನ್ನು": 9311,
      "ಗದಗ": 9312,
      "ರಾಸಾಯನಿಕ": 9313,
      "ಯಾರಿಗೆ": 9314,
      "ಅಗತ್ಯವಿರುವ": 9315,
      "ನ್ವಯ": 9316,
      "ಕೃತವಾಗಿ": 9317,
      "ಸೆನ್": 9318,
      "ಸ್ತರ": 9319,
      "ಂದೋ": 9320,
      "ಜನಕ": 9321,
      "ರೋಹಿತ್": 9322,
      "ನೌಕರರ": 9323,
      "ಅಲ್ಪಸಂಖ್ಯಾ": 9324,
      "ೇಶನ್": 9325,
      "ಬ್ರಾಹ್ಮಣ": 9326,
      "ಮಾಡಲಾಗಿತ್ತು": 9327,
      "ಪ್ರವಾಸಿಗ": 9328,
      "ಪ್ರತಿಭೆ": 9329,
      "ಉಪ್ಪು": 9330,
      "ಶ್ವರ್": 9331,
      "ಅಕಾಡೆಮಿ": 9332,
      "ರ‍": 9333,
      "ಸಹಯೋಗ": 9334,
      "ಓವರ್‌": 9335,
      "ನಾಯಕಿ": 9336,
      "ಓಪ": 9337,
      "ಿಸಿಕೊಂಡಿ": 9338,
      "ಪದಲ್ಲಿ": 9339,
      "ಇಂಡಿಯನ್": 9340,
      "ಗೋಚರ": 9341,
      "ಬಹುದೇ": 9342,
      "ಆರೋಗ್ಯಕರ": 9343,
      "ಪ್ರಕೃತಿ": 9344,
      "ಕಾರ್ಡ್‌": 9345,
      "ೇವೆ": 9346,
      "ಕರೆದುಕೊಂಡು": 9347,
      "ಚಿತ್ತ": 9348,
      "ಗಾಂಧೀ": 9349,
      "ವಿಷಯಗಳನ್ನು": 9350,
      "ವಿಳಾ": 9351,
      "ರಾಮು": 9352,
      "ಪಂಜಾಬ್": 9353,
      "ಪಿಂಗ್": 9354,
      "ನಾರ್": 9355,
      "ಕೆಂಪ": 9356,
      "ಂಡರ್‌": 9357,
      "ವಹಿವಾಟು": 9358,
      "ತಕ್ಕಂತೆ": 9359,
      "ಗಳಿಲ್ಲ": 9360,
      "ಹುಟ್ಟಿದ": 9361,
      "ಕಾಣುವ": 9362,
      "ಎಮ್": 9363,
      "ಗುಲಾ": 9364,
      "ಲಾಘ": 9365,
      "ಬಿಐ": 9366,
      "ಕೊಂಡಿದ್ದರು": 9367,
      "ನಿರ್ದೇಶಕರು": 9368,
      "ಉಸಿರಾ": 9369,
      "ಅನಾವರಣ": 9370,
      "ರೇಟ್": 9371,
      "ನಡೆಸುತ್ತಿದ್ದಾರೆ": 9372,
      "ೊಡ್ಡ": 9373,
      "ಹರ್ಷ": 9374,
      "ಮಾಡಲಾಯಿತು": 9375,
      "ಸವಿ": 9376,
      "ಈವರೆಗೆ": 9377,
      "ಇಪ್ಪ": 9378,
      "ವಸ್ತ್ರ": 9379,
      "400": 9380,
      "ಅಂದಾಜು": 9381,
      "ಅನ್ಯಾಯ": 9382,
      "ಲಭ್ಯವಿದೆ": 9383,
      "ಪೂರೈಸ": 9384,
      "ಬಿಎಸ್‌": 9385,
      "ಸಮಾಜದಲ್ಲಿ": 9386,
      "et": 9387,
      "ಸುಬ್ರಹ್": 9388,
      "ಸರ್ಕಾರದಿಂದ": 9389,
      "ಕ್ಲಬ್": 9390,
      "ಪತ್ರಕರ್ತ": 9391,
      "ಗುಂಡ": 9392,
      "ಬ್ಬರಿ": 9393,
      "ೀರ್": 9394,
      "ರಾಜಧಾನಿ": 9395,
      "ಚಾಮರಾಜನಗರ": 9396,
      "ಒದಗಿಸುವ": 9397,
      "ಅಭಿಮಾನಿಗಳ": 9398,
      "ಅಚ್ಚರಿ": 9399,
      "ಸ್ಯಾಂಡಲ್": 9400,
      "ಪಟು": 9401,
      "ಸುಧಾರಣೆ": 9402,
      "ಹೊಂದಿದ": 9403,
      "ಮತದಾರರ": 9404,
      "ಹೊರತುಪಡಿಸಿ": 9405,
      "ವ್ಯಾಪಕ": 9406,
      "ಆಕರ್ಷಕ": 9407,
      "ಗೊಳಿಸಿದೆ": 9408,
      "ಸಿಐ": 9409,
      "ರುವುದೇ": 9410,
      "ನ್ಯಾಷನಲ್": 9411,
      "ಫ್ಯೂ": 9412,
      "ಸಂಸ್ಕೃತ": 9413,
      "ಕೈಗಾರಿಕೆ": 9414,
      "ಕುವೆ": 9415,
      "ಪಯೋಗ": 9416,
      "ಚೀನ": 9417,
      "ನಾಲ್ಕನೇ": 9418,
      "ಸಮಸ್ಯೆಯನ್ನು": 9419,
      "ಕೈಕ": 9420,
      "ಸ್ಪರ್ಧಿ": 9421,
      "ಇಚ್ಛ": 9422,
      "ನಿನಗೆ": 9423,
      "ಪಕ್ಕದ": 9424,
      "ಕಲ್ಪನೆ": 9425,
      "ವಿದ್": 9426,
      "ಬಿಡುವ": 9427,
      "ಮಗುವಿಗೆ": 9428,
      "ವಿದರು": 9429,
      "ರೇನು": 9430,
      "ಮದು": 9431,
      "ಎದೆ": 9432,
      "ಪಡೆದರು": 9433,
      "ಸಂಶೋಧನಾ": 9434,
      "ಾಳಿ": 9435,
      "ಮಾಲ": 9436,
      "ಬೆಂಬಲಿ": 9437,
      "42": 9438,
      "ರಾಯಚೂರು": 9439,
      "ವಶಪಡ": 9440,
      "ಪುರದಲ್ಲಿ": 9441,
      "ಸೃಷ್ಟಿ": 9442,
      "ಶಾಶ್ವತ": 9443,
      "ನಂದಿ": 9444,
      "ನಂಬರ್": 9445,
      "ಬ್ಯಾನರ್": 9446,
      "ಅಹ್": 9447,
      "ಯುವಕರು": 9448,
      "ಬಿಟ್ಟರೆ": 9449,
      "ಸರಕು": 9450,
      "ಿದ್": 9451,
      "ದಿನದಲ್ಲಿ": 9452,
      "ದೀಪಾ": 9453,
      "ಬಳಸಲು": 9454,
      "ಫಲಾನುಭವಿ": 9455,
      "ಸಂರಕ್ಷ": 9456,
      "ಎಲ್ಲೆ": 9457,
      "ಸಾರಿ": 9458,
      "ಪತ್ರಿಕಾಗೋಷ್ಠ": 9459,
      "ಜಿಂಗ್": 9460,
      "೧೧": 9461,
      "ಬೆಳೆಸಿ": 9462,
      "ಸಮಯವನ್ನು": 9463,
      "ಶೃಂಗ": 9464,
      "ಚರಣೆಯ": 9465,
      "ಕಾರದ": 9466,
      "ಕಿರುಕುಳ": 9467,
      "ಸಾಧ್ಯವಾಗುತ್ತದೆ": 9468,
      "ಹನಿ": 9469,
      "ಕಥಾ": 9470,
      "ಯಾರ್": 9471,
      "೦ದು": 9472,
      "ಸ್ಕ್ರೀ": 9473,
      "ದಿಂದಲೂ": 9474,
      "ಮಾಡೋ": 9475,
      "ವಿದ್ಯುತ್‌": 9476,
      "ಗೊಳಿಸುತ್ತದೆ": 9477,
      "ಕೊಳ್ಳಬಹುದು": 9478,
      "ಡ್ರಗ್": 9479,
      "ಶಿರ": 9480,
      "ಕಚೇರಿಯ": 9481,
      "ಾಧಿಕಾರಿ": 9482,
      "ಜೀರ್ಣ": 9483,
      "ಹನುಮಂತ": 9484,
      "ಏಕೈಕ": 9485,
      "ಟ್‌ನ": 9486,
      "ನಿಗಮ": 9487,
      "ಈರು": 9488,
      "ಸುಬ್ರಹ್ಮಣ್ಯ": 9489,
      "ನಡೆಸುತ್ತಿರುವ": 9490,
      "ಮುನ್ನೆ": 9491,
      "ಸಲ್ಲಿಸಿದ": 9492,
      "ost": 9493,
      "ವತ್ತು": 9494,
      "ತರಾ": 9495,
      "ಸ್ಪೇ": 9496,
      "ಇತರರು": 9497,
      "ವಲಸೆ": 9498,
      "ವೈಜ್ಞಾನಿಕ": 9499,
      "ಸ್ಪಿ": 9500,
      "ನ್ಯಾಯಾಲಯದ": 9501,
      "ಬ್ರೇಕ್": 9502,
      "ಅಗತ್ಯವಿಲ್ಲ": 9503,
      "ಹತ್ಯೆಗೆ": 9504,
      "ಯಲ್": 9505,
      "ನಿಧ": 9506,
      "ಮಲ್ಲಿಕಾರ್ಜುನ": 9507,
      "ವಸ್ತುಗಳು": 9508,
      "ತಂದಿ": 9509,
      "ದಂತ": 9510,
      "ಬಾವಿ": 9511,
      "ಕಸ್ಟ": 9512,
      "ಡಾಲರ್": 9513,
      "ಟಿಎಂ": 9514,
      "ಡ್ಕ": 9515,
      "ಅಚ್ಚು": 9516,
      "ಇದುವರೆ": 9517,
      "ಭಕ್ತರ": 9518,
      "ಮನ್‌": 9519,
      "ಸಿಎ": 9520,
      "ಚಿಹ್": 9521,
      "ಭಾಷೆಯಲ್ಲಿ": 9522,
      "ತಿಳಿದುಬಂದಿದೆ": 9523,
      "ಿದ್ದಾಳೆ": 9524,
      "ಶ್ಲಾಘ": 9525,
      "ರನ್ನ": 9526,
      "ವಾಗ್": 9527,
      "ಬರೆದಿದ್ದಾರೆ": 9528,
      "ವಿಸ": 9529,
      "ಶಿವನ": 9530,
      "ಆಂತರಿಕ": 9531,
      "ಸತೀಶ್": 9532,
      "ಆರಾಧ": 9533,
      "ಮಿಂಚ": 9534,
      "ಸಂಬಳ": 9535,
      "ಸಿದ್ಧಾಂತ": 9536,
      "ಸಮಯದ": 9537,
      "ಹೇಳ್": 9538,
      "ಮಾಡುವುದಿಲ್ಲ": 9539,
      "ಇಳಿಯ": 9540,
      "ಚಾಲೆ": 9541,
      "ಉಡುಗೊ": 9542,
      "il": 9543,
      "ಒಟ್ಟಿಗೆ": 9544,
      "ಭತ್ತ": 9545,
      "ಜೈಲು": 9546,
      "ಬಂಧಿಸಿದ್ದಾರೆ": 9547,
      "ಮೂತ್ರ": 9548,
      "ಮೊರೆ": 9549,
      "ದೇಶಾದ್ಯಂತ": 9550,
      "ಜಿಲ್ಲೆಗೆ": 9551,
      "ಅನುಮತ": 9552,
      "ಮಾಡಿಕೊಳ್ಳಲು": 9553,
      "ಕನ್ನಡಿಗರ": 9554,
      "ವುಡ್‌": 9555,
      "ನಾವೆಲ್ಲ": 9556,
      "ಜೀವನವನ್ನು": 9557,
      "ಭೀತಿ": 9558,
      "ಸಂಕಲ": 9559,
      "ವಿಶ್ವಾ": 9560,
      "ಜೇನು": 9561,
      "56": 9562,
      "ಬಳಗ": 9563,
      "ಸಂಘರ್ಷ": 9564,
      "ಹಿಟ್": 9565,
      "ಾದರು": 9566,
      "ನಿಗಾ": 9567,
      "ಮಿತವಾಗಿ": 9568,
      "ಕದ್ದ": 9569,
      "ಯ್ತು": 9570,
      "ರಚನೆಯ": 9571,
      "ಕೊಂಡಿದ್ದು": 9572,
      "is": 9573,
      "ಬಗೆಹರ": 9574,
      "ಪೇಟ": 9575,
      "ಇದುವರೆಗೆ": 9576,
      "ಮುಂಚ": 9577,
      "ದೇಶಗಳ": 9578,
      "ಕಟ್": 9579,
      "ಶೀಘ್ರದಲ್ಲೇ": 9580,
      "ಕರ್ಮ": 9581,
      "ತೋರಿಸಿ": 9582,
      "ನಿಸ": 9583,
      "ಸಂಕೇತ": 9584,
      "ವೆಬ್‌ಸೈ": 9585,
      "ಭ್ಯಾಸ": 9586,
      "ಶೀರ್ಷಿ": 9587,
      "ಬ್ಲಾಗ್": 9588,
      "ಿಸುತ್ತಿಲ್ಲ": 9589,
      "ಎನ್ನುವುದನ್ನು": 9590,
      "ಕಾಂಶ": 9591,
      "ಕಾರರು": 9592,
      "ವಿತ್ತು": 9593,
      "ಂಬುದು": 9594,
      "ಪುರಾಣ": 9595,
      "ಸ್ಮಾರಕ": 9596,
      "ರಾಜ್ಯಗಳಲ್ಲಿ": 9597,
      "ನಿಗದಿತ": 9598,
      "ಕಡ್ಡಾಯವಾಗಿ": 9599,
      "ಸಲ್ಲಿಸಲು": 9600,
      "ಕಾರ್ಯಕ್ರಮಗಳನ್ನು": 9601,
      "ಕಿಲೋ": 9602,
      "ಟೀಕೆ": 9603,
      "ಗಿಯ": 9604,
      "ಜನರಲ್": 9605,
      "ಕಾಯ್ದು": 9606,
      "ಸೇನೆಯ": 9607,
      "ಪ್ರಕರಣಗಳ": 9608,
      "ಬ್ಯಾಟರಿ": 9609,
      "ವಿವರಿಸಿದರು": 9610,
      "ಹಸು": 9611,
      "ನಿಂತಿ": 9612,
      "ನಿಯಮಗಳನ್ನು": 9613,
      "ಂಗಿನ": 9614,
      "ಪೂಜಾ": 9615,
      "ಿದ್ದಂತೆ": 9616,
      "ಸಂಭಾಷ": 9617,
      "ಕಿರ": 9618,
      "ಅಯೋ": 9619,
      "ಗಣಪತಿ": 9620,
      "ಬಗ್ಗೆಯೂ": 9621,
      "ಬ್ಯು": 9622,
      "ಸಮ್ಮಿ": 9623,
      "ಶ್ರೀಲಂಕಾ": 9624,
      "ಒಂದಾಗಿದೆ": 9625,
      "ಮರೆತು": 9626,
      "ನಟಿಯ": 9627,
      "ಹೆಚ್ಚಾಗ": 9628,
      "ಬ್ಬರು": 9629,
      "ವೆಡೆ": 9630,
      "ವಿಕಲ": 9631,
      "ಸುದ್ದಿಗಾರರೊಂದಿಗೆ": 9632,
      "ಆಕ್": 9633,
      "ನಡೆದಿದ್ದು": 9634,
      "ಕಲಾವಿದರು": 9635,
      "ಟ್‌ಗಳನ್ನು": 9636,
      "ಗಮನಾರ್ಹ": 9637,
      "ಅಂತಿಮವಾಗಿ": 9638,
      "ಪತ್ನಿಯ": 9639,
      "ನ್ಯಾಯಾಧೀಶ": 9640,
      "ಕಥೆಯ": 9641,
      "ಶುಭಾಶಯ": 9642,
      "ತಕ್ಷಣವೇ": 9643,
      "ವಲು": 9644,
      "ಆಪ್ತ": 9645,
      "ಅಭ್ಯರ್ಥಿಗಳ": 9646,
      "ಪಾಲಿಗೆ": 9647,
      "ನಾಯ್ಕ": 9648,
      "ಹಮ್ಮಿಕೊಳ್ಳ": 9649,
      "ಬಿಸಿಸಿ": 9650,
      "ಪ್ರಶ್ನೆಯ": 9651,
      "ದುಬಾರಿ": 9652,
      "ೋನ್": 9653,
      "ಮಣ್ಣು": 9654,
      "77": 9655,
      "ಲ್ಲಿದ್ದಾರೆ": 9656,
      "ಹಲವರು": 9657,
      "ಬಿಯ": 9658,
      "ಬಿದ್ದಿದೆ": 9659,
      "ತಟ್ಟ": 9660,
      "ಮಾರ್ಗಸೂಚಿ": 9661,
      "ಮನ್ನ": 9662,
      "ಸಮೃ": 9663,
      "ಹಡ": 9664,
      "Sp": 9665,
      "2008": 9666,
      "ಕಚೇರಿಗೆ": 9667,
      "ನಿಲು": 9668,
      "ಪರಿಣಾಮಕಾರ": 9669,
      "ಹಸ್ತಾ": 9670,
      "ಗುಡಿ": 9671,
      "ಕಾದು": 9672,
      "ಮುಂಗಾರು": 9673,
      "ಬರುವುದು": 9674,
      "ಸೆಕೆ": 9675,
      "ಆಗಾಗ": 9676,
      "ಅಧ್ಯಕ್ಷರು": 9677,
      "ವರೆಗಿನ": 9678,
      "ಮಾಡುವುದರಿಂದ": 9679,
      "ಆಗ್ರಹಿಸಿ": 9680,
      "ಅಫ್": 9681,
      "ಗಿಂತಲೂ": 9682,
      "ಆಟಗಾರರು": 9683,
      "ನ್ಯೂಜಿ": 9684,
      "ಮೋಟಾರ್": 9685,
      "ಸುನೀ": 9686,
      "ಸೌರ": 9687,
      "ನಿರು": 9688,
      "ಬೆಳೆಸ": 9689,
      "ಆವೃತ್ತಿ": 9690,
      "ತನಿಖಾ": 9691,
      "ಎಂಟ್ರಿ": 9692,
      "ಬಾಂಬ್": 9693,
      "ವಂಚನೆ": 9694,
      "ಅವನನ್ನು": 9695,
      "ತಿರುಗ": 9696,
      "ಮೈದಾನದಲ್ಲಿ": 9697,
      "ರೇವಣ್ಣ": 9698,
      "ೂರ್": 9699,
      "ವಾಗುವುದು": 9700,
      "ವ್ಯಾಸ": 9701,
      "ಬಿಸಿಸಿಐ": 9702,
      "ದೇಗುಲ": 9703,
      "ಅಂಗನ": 9704,
      "ಅನುವಾದ": 9705,
      "3ನೇ": 9706,
      "ಕೊಟ್ಟರು": 9707,
      "ಅವಮಾನ": 9708,
      "ಮಂಗಳೂರಿನ": 9709,
      "ನಂತಹ": 9710,
      "ಸುಮ್ಮನೆ": 9711,
      "ಬಾಣ": 9712,
      "ಗುಪ್ತ": 9713,
      "ಜಾತ": 9714,
      "ೆವು": 9715,
      "ತಿಳಿ": 9716,
      "ನಿಮಿಷಗಳ": 9717,
      "ಮತ್ತಿತರರು": 9718,
      "ವಿಳಾಸ": 9719,
      "ನ್ಯಾಯಾಂಗ": 9720,
      "ಬಡ್": 9721,
      "ಗಂಧ": 9722,
      "ಕೀರ್ತಿ": 9723,
      "ir": 9724,
      "ಕ್ವಿ": 9725,
      "ವ್ಯಕ್ತಿಗಳು": 9726,
      "ಅನ್ನೋದು": 9727,
      "ತೆಲ": 9728,
      "ಸುದ್ದಿಗೋಷ್ಠಿಯಲ್ಲಿ": 9729,
      "ಪಾಸಿಟಿವ್": 9730,
      "ಕರಾದ": 9731,
      "ವಿವರಣೆ": 9732,
      "ಶಾಸನ": 9733,
      "ದುರಸ್": 9734,
      "ತಾಪಮಾನ": 9735,
      "ಂದೂರು": 9736,
      "ಯಾದವ್": 9737,
      "ವಾಗಿಯೇ": 9738,
      "ಇವುಗಳ": 9739,
      "ುತ್ತಾಳೆ": 9740,
      "ನಾಲ": 9741,
      "ನಿಲ್ದಾಣದಲ್ಲಿ": 9742,
      "ಒಲಿಂ": 9743,
      "ಬಳಸಬಹುದು": 9744,
      "ಬಾಳ": 9745,
      "ಕೋನ": 9746,
      "ಬಳಸಲಾಗುತ್ತದೆ": 9747,
      "ವೊಂದನ್ನು": 9748,
      "ನೆಹ": 9749,
      "ಕಟ್ಟುನಿ": 9750,
      "ವರೆಲ್ಲ": 9751,
      "ಹುಡುಕಿ": 9752,
      "ಯೋಜನೆಗಳ": 9753,
      "ಮುಗಿಸಿ": 9754,
      "ಸಮೂಹ": 9755,
      "ಇಲಾಖೆಗೆ": 9756,
      "ವೀಡಿಯೋ": 9757,
      "ಿಸಬಹುದಾದ": 9758,
      "ನಾಲ್ವರು": 9759,
      "ಆಧರಿಸಿ": 9760,
      "ಸೆಮಿ": 9761,
      "ಅಮಾನ": 9762,
      "ತಣ್ಣ": 9763,
      "ಪರಿಶೀಲಿಸಿ": 9764,
      "ಷ್ಟಿ": 9765,
      "ದೊಳ": 9766,
      "ಆಯೋಗದ": 9767,
      "ಪೀಡಿತ": 9768,
      "ಗೊತ್ತೇ": 9769,
      "ಸಂತ್ರಸ್ತ": 9770,
      "ಕೆನ": 9771,
      "ಸಾಗಿ": 9772,
      "ಹೋಲಿಸಿದರೆ": 9773,
      "ವಾದದ್ದು": 9774,
      "ಹೋಗಿದೆ": 9775,
      "ಪಾಕ": 9776,
      "ನಾಡಿನಲ್ಲಿ": 9777,
      "ವಾಹನಗಳು": 9778,
      "ಕುರ್": 9779,
      "ಮಾಡುತ್ತೇನೆ": 9780,
      "ಸ್ಥಾನವನ್ನು": 9781,
      "ಒತ್ತಾಯಿಸಿದರು": 9782,
      "ಕೇರಳದ": 9783,
      "ಂದಾ": 9784,
      "ಮಂಜುನಾಥ್": 9785,
      "ಹೆಂಡತಿ": 9786,
      "ರಶ್ಮಿ": 9787,
      "ಮಲತಾ": 9788,
      "ಸಂಘಟನೆಗಳು": 9789,
      "ಇದರೊಂದಿಗೆ": 9790,
      "ಗನ": 9791,
      "ಹೊಡೆದ": 9792,
      "ಸ್ಥಳಗಳಲ್ಲಿ": 9793,
      "ಮಣ್ಣಿನ": 9794,
      "ಸದಸ್ಯರಾದ": 9795,
      "ದಿನೇಶ್": 9796,
      "ಪರಮೇಶ್": 9797,
      "ts": 9798,
      "ಕ್ಷಾ": 9799,
      "ಮಾಡಿದಾಗ": 9800,
      "ಸಂಕೀ": 9801,
      "ಹೊಲ": 9802,
      "ಭವಿಷ್ಯದ": 9803,
      "ಪ್ರಚೋ": 9804,
      "ವಾರ್ಡ್‌": 9805,
      "ಬಳಕೆದಾರರು": 9806,
      "ಹಾದಿ": 9807,
      "un": 9808,
      "ಸಾಮಗ್ರಿ": 9809,
      "ಹೊರತಾಗಿ": 9810,
      "ಯಶಸ್ವಿಯಾಗಿ": 9811,
      "ತಮ್ಮದೇ": 9812,
      "ವಿಶ್ವವಿದ್ಯಾಲಯದ": 9813,
      "ಅಮೃತ": 9814,
      "ನೀಡುತ್ತಾರೆ": 9815,
      "ರುದ್ರ": 9816,
      "ಇಮೇಲ್": 9817,
      "ಫೌ": 9818,
      "ವಾಣ": 9819,
      "ಹೈಕೋರ್ಟ್‌": 9820,
      "ಸಾಮೂ": 9821,
      "ಿಸಲಿಲ್ಲ": 9822,
      "ಸ್ವಾಮಿಯ": 9823,
      "hrs": 9824,
      "ಗೂಡ": 9825,
      "ದೂರದ": 9826,
      "ಸ್ಕೋ": 9827,
      "ನೀಡಲಾಗುತ್ತಿದೆ": 9828,
      "ಕ್ರಮಣ": 9829,
      "ರಫ್": 9830,
      "ಥೆ": 9831,
      "ಸಮ್": 9832,
      "ಜನಪದ": 9833,
      "ಗಾದರೂ": 9834,
      "ತಂಡವು": 9835,
      "ಯೋಗಾ": 9836,
      "ತಂಡಗಳು": 9837,
      "ಮೂಲ್ಯ": 9838,
      "ಿಯಾಗಿದ್ದಾರೆ": 9839,
      "ಸ್ಟೈ": 9840,
      "ಮಾದರಿಯಲ್ಲಿ": 9841,
      "ಲೋಕಾ": 9842,
      "ವಿಷಯಗಳ": 9843,
      "ಬಸವಣ್ಣ": 9844,
      "ವಿಷಯದ": 9845,
      "ಿತವಾಗಿ": 9846,
      "ಮೇಲೂ": 9847,
      "ಕೊಂಡರೆ": 9848,
      "ಸರೋ": 9849,
      "ಕುವೆಂಪು": 9850,
      "ಆಂಡ್ರ": 9851,
      "ಪತಿಯ": 9852,
      "ಮೇಲು": 9853,
      "ಆಫ್‌": 9854,
      "ಗ್ರಹಣ": 9855,
      "ಸೇವನೆ": 9856,
      "ಪ್ಪೆ": 9857,
      "ಕಣ್ಣಿಗೆ": 9858,
      "ಿಸಬೇಕ": 9859,
      "ಸ್ಪಷ್ಟವಾಗಿ": 9860,
      "ಖಚಿತಪಡ": 9861,
      "ಹಿನ್ನಲೆಯಲ್ಲಿ": 9862,
      "ಓರ್ವ": 9863,
      "ರೆಯಲ್ಲಿ": 9864,
      "ಅಪರೂಪದ": 9865,
      "ಗೊಳ್ಳುವ": 9866,
      "ಮೆಡಿ": 9867,
      "ಚಿಯ": 9868,
      "ತೆರೆದ": 9869,
      "ಚರ್ಮದ": 9870,
      "ಂಗ್ಯ": 9871,
      "ಮೊಹಮ್ಮದ್": 9872,
      "ಸ್ಪಷ್ಟನೆ": 9873,
      "ಡಿಎ": 9874,
      "ಆಗಿಲ್ಲ": 9875,
      "43": 9876,
      "ಅಪ್‌": 9877,
      "ವಂತೆ": 9878,
      "ಮತ್ತೊಬ್ಬ": 9879,
      "ಸ್ಥಿತಿಯ": 9880,
      "ಹೂವು": 9881,
      "ಆಚಾರ್ಯ": 9882,
      "ಪ್ರಸಕ್ತ": 9883,
      "ವೆಂಬ": 9884,
      "ತ್ಮಕವಾಗಿ": 9885,
      "ಾರಂತೆ": 9886,
      "ಸೆಂಟರ್": 9887,
      "ಮಗನ": 9888,
      "ಕೂಲಿ": 9889,
      "ಅನುಮೋದನೆ": 9890,
      "ಸೈಕಲ್": 9891,
      "ಅಧ": 9892,
      "ಗುಂಡು": 9893,
      "ಜನತಾ": 9894,
      "ಪ್ರಜಾವಾಣಿ": 9895,
      "ಮಾಸ್ಟರ್": 9896,
      "ದುರ್ಬಲ": 9897,
      "ಮಾಡಿಕೊಂಡಿದ್ದಾರೆ": 9898,
      "ನುಗ್ಗ": 9899,
      "ವಹಿಸಿದ್ದರು": 9900,
      "ಒಂದೆರಡು": 9901,
      "ಂನಲ್ಲಿ": 9902,
      "ತ್ಥ": 9903,
      "ಾಗಾರ": 9904,
      "ಫಲಕ": 9905,
      "ಡಿವೈ": 9906,
      "ಗ್ನ": 9907,
      "ಸುರಿದ": 9908,
      "ದಲ್ಲಿದ್ದಾರೆ": 9909,
      "ಶಾಲಿ": 9910,
      "ಹೊಸದಿಲ್ಲಿ": 9911,
      "ಒಳಗ": 9912,
      "ಗ್ರೀ": 9913,
      "ಶೈಲಿ": 9914,
      "ಕಲ್‌": 9915,
      "ಲಕ್": 9916,
      "ಸಲ್ಲಿಸಿ": 9917,
      "ಹೋಗುತ್ತದೆ": 9918,
      "ಭರ್ತಿ": 9919,
      "ಕಿತ್ತು": 9920,
      "ವಿಧಾನಸೌಧ": 9921,
      "ಫಾರ್ಮ್": 9922,
      "ಆನಂದ್": 9923,
      "ಶತ್": 9924,
      "ಗಳಿದ್ದು": 9925,
      "ಕುದು": 9926,
      "ದೊಂದು": 9927,
      "ಾಗಿರುವುದು": 9928,
      "ದಾನಿ": 9929,
      "ಲಿಂಗಾಯತ": 9930,
      "ತೆಯು": 9931,
      "೧೪": 9932,
      "ಕಾರ್ಯವನ್ನು": 9933,
      "ನವೀಕರ": 9934,
      "ka": 9935,
      "ಪಾರ್ಕ್": 9936,
      "ಮಮತಾ": 9937,
      "ig": 9938,
      "ಪ್ರಸಾದ": 9939,
      "ರಾಜಾ": 9940,
      "58": 9941,
      "ಹೇಗಿ": 9942,
      "ಫ್ಟ್‌": 9943,
      "ಡಾರ್": 9944,
      "ಕೊಠಡಿ": 9945,
      "ಶಿಲ್ಪ": 9946,
      "ಮಾಡು": 9947,
      "ಸಂದರ್ಶನ": 9948,
      "ಪಟ್ಟಿಯನ್ನು": 9949,
      "ನಾಗರಾಜ್": 9950,
      "ಶಾಕ್": 9951,
      "ಮ್ಯಾನ್": 9952,
      "ಂಶು": 9953,
      "ಕಾನಂದ": 9954,
      "ಓವರ್": 9955,
      "ಕಣಿ": 9956,
      "ವಿಜ": 9957,
      "ಿಸಿದ್ದಾನೆ": 9958,
      "ಕಣಕ್ಕಿ": 9959,
      "ಮಾತನ್ನು": 9960,
      "ಸಿಗಲಿದೆ": 9961,
      "ಲೀಕರಣ": 9962,
      "ಬಂದಿವೆ": 9963,
      "ಗಮನಿಸಿ": 9964,
      "ಪ್ರಸಂಗ": 9965,
      "ಜಾಸ್ತಿ": 9966,
      "ಮಲ್ಲ": 9967,
      "ನೀಡಿಲ್ಲ": 9968,
      "ದಂದು": 9969,
      "ಯುಗ": 9970,
      "ಪ್ಪನ": 9971,
      "ಪಾಂಡೆ": 9972,
      "ಭಗವಂತ": 9973,
      "ಆದಿತ್ಯ": 9974,
      "ಂದ್ರಾ": 9975,
      "ರಲಿದೆ": 9976,
      "ಂಗಡಿ": 9977,
      ".....": 9978,
      "ಸ್ಟೇಟ್": 9979,
      "ಇದಲ್ಲದೆ": 9980,
      "ಫುಲ್": 9981,
      "ಿಸಬಾರದು": 9982,
      "ುತ್ತಿರಲಿಲ್ಲ": 9983,
      "ಮಾಧ್ಯಮದ": 9984,
      "ನಿಖಿ": 9985,
      "ಸರಾಸರಿ": 9986,
      "ಖುಷ": 9987,
      "ದೇವಿಯ": 9988,
      "ಪರಿಣಾಮಕಾರಿ": 9989,
      "ಕೈಗೊಳ್ಳಬೇಕು": 9990,
      "ಸ್ತ್ರಿ": 9991,
      "ವ್ಯಾಯಾಮ": 9992,
      "ತಗ್ಗ": 9993,
      "ಚಿತ್ರಮಂದಿರ": 9994,
      "ಮಲ್ಯ": 9995,
      "ದಾಸ್": 9996,
      "ಕಣ್ಣೀ": 9997,
      "ಲಲ್ಲಿ": 9998,
      "ಶಿಶು": 9999,
      "ವಿಚಾರಣೆಗೆ": 10000,
      "ಪ್ರಾರ್ಥನೆ": 10001,
      "ವರ್ತನ": 10002,
      "ತರ್": 10003,
      "ಆಯೋಜಿಸಿದ್ದ": 10004,
      "ನೈಜ": 10005,
      "ಮಾಂಸ": 10006,
      "ಬದಿ": 10007,
      "ನಾಯಕತ್ವ": 10008,
      "ಯೋಚನೆ": 10009,
      "ಇತಿಹಾ": 10010,
      "ಇಂದಿರಾ": 10011,
      "ರವಾನ": 10012,
      "ಖಂಡಿತ": 10013,
      "ಪ್ರಧಾನಿಯ": 10014,
      "ಆರೋಪಿಸಿದರು": 10015,
      "ಸಮಸ್ಯೆಗೆ": 10016,
      "ತಿರಸ್ಕರ": 10017,
      "ಜಾತ್ರೆ": 10018,
      "tion": 10019,
      "66": 10020,
      "ಕೊನೆಯಲ್ಲಿ": 10021,
      "ಸೀಟು": 10022,
      "ಎರಡನೆಯ": 10023,
      "ಪ್ರಕಟಣೆ": 10024,
      "ಮಾಡಲಾಗ": 10025,
      "ವಾಗ್ದಾಳಿ": 10026,
      "2011": 10027,
      "ವರಿಗೂ": 10028,
      "ಗಳಿಸಿ": 10029,
      "ಗಷ್ಟೇ": 10030,
      "ಾಯ್ತು": 10031,
      "ಟ್ರಸ್ಟ್": 10032,
      "ಕೇಂದ್ರಕ್ಕೆ": 10033,
      "ಜಾಗದಲ್ಲಿ": 10034,
      "ತಂದಿದೆ": 10035,
      "ಮಸೀದಿ": 10036,
      "2012": 10037,
      "ಕ್ರಿಕೆಟ್‌": 10038,
      "ಕೊನೆಗೂ": 10039,
      "ಟಿನ್": 10040,
      "ಕುವ": 10041,
      "ಖಂಡಿತವಾಗಿ": 10042,
      "ನಾಯಕ್": 10043,
      "ವಿವೇಕಾನಂದ": 10044,
      "OR": 10045,
      "ಟನ್‌": 10046,
      "ದಿನದಿಂದ": 10047,
      "ಕಳೆದುಕೊಳ್ಳ": 10048,
      "ಒನ್": 10049,
      "ನಕ್ಷತ್ರ": 10050,
      "ಕೌಶಲ್ಯ": 10051,
      "ದಾಖಲೆಗಳನ್ನು": 10052,
      "ಬಾಗಲಕೋಟೆ": 10053,
      "ಹಸ್ತಾಂತರ": 10054,
      "ಕ್ರಮವಾಗಿ": 10055,
      "ಯ್ದು": 10056,
      "ನಿಂದಲೇ": 10057,
      "at": 10058,
      "ಪ್ರತಿಮೆ": 10059,
      "ಗುರುತು": 10060,
      "ಗೊಂಡಿದ್ದು": 10061,
      "ಚಿತ್ರಗಳ": 10062,
      "ತಲ": 10063,
      "ವೈಭವ": 10064,
      "ಲಾಸ್": 10065,
      "ಭೀಕರ": 10066,
      "57": 10067,
      "ಬೆಳೆದು": 10068,
      "ಸಾಮರ್ಥ್ಯವನ್ನು": 10069,
      "ತೀನಿ": 10070,
      "ಅಂಡ್": 10071,
      "ಚಿತ್ರರಂಗದ": 10072,
      "ಫೈಲ್": 10073,
      "ಮಳೆಗಾಲ": 10074,
      "ಧಾರಣ": 10075,
      "ಕರ್ಮಿ": 10076,
      "ಕ್ರಿಕೆಟಿ": 10077,
      "ಬಾಯ್": 10078,
      "ಲೆನ್ಸ್": 10079,
      "ಶ್ರೀನಿವಾಸ್": 10080,
      "ಜಾಲತಾಣಗಳಲ್ಲಿ": 10081,
      "ಒಂದೂ": 10082,
      "ಸಮಸ್ಯೆಗಳ": 10083,
      "ರೂಪು": 10084,
      "ಮಧುಮೇ": 10085,
      "ಲಾಕ್‌ಡೌನ್‌": 10086,
      "ಮೊದಲಿಗೆ": 10087,
      "ಹದಿ": 10088,
      "ಿಯಾಗಿದ್ದು": 10089,
      "ವಾಗಲಿ": 10090,
      "ಯುಎಸ್": 10091,
      "ವಾಗುವಂತೆ": 10092,
      "ಸೊಗ": 10093,
      "ವಿಲೇ": 10094,
      "ಶ್ರೀಮತಿ": 10095,
      "ಬಣ": 10096,
      "el": 10097,
      "ಿಸಿಕೊಂಡಿದೆ": 10098,
      "ನಿಯೋಜ": 10099,
      "ಹೆದ": 10100,
      "ಆಲೋಚನೆ": 10101,
      "NAD": 10102,
      "ವಿರೋಧಿಸಿ": 10103,
      "ತನಿಖೆಗೆ": 10104,
      "ಅಬ್ಬರ": 10105,
      "ವಿಕಿಪೀ": 10106,
      "ವಿರುತ್ತದೆ": 10107,
      "ಪಶು": 10108,
      "ರಡ": 10109,
      "ಯೋಜನೆಗಳು": 10110,
      "ಜನಸಾಮಾನ್ಯ": 10111,
      "ಸ್ಟ್ರೀ": 10112,
      "ತೆರೆದು": 10113,
      "ಅಂಗನವಾಡಿ": 10114,
      "ಿಸೋಣ": 10115,
      "ಕರೆದ": 10116,
      "ತೆಂಗಿನ": 10117,
      "ಎಂಬಂತೆ": 10118,
      "ಚಾನೆ": 10119,
      "ಸಂದರ್ಭಗಳಲ್ಲಿ": 10120,
      "ಯಾವುದೋ": 10121,
      "ಲಾರಿ": 10122,
      "ಕೋಡ್": 10123,
      "ಅದರಂತೆ": 10124,
      "ಆನ್ಲೈನ್": 10125,
      "ಿದಾಗ": 10126,
      "ಸ್ಪಾ": 10127,
      "ಗಳಷ್ಟು": 10128,
      "08": 10129,
      "ವಂದಿಸಿದರು": 10130,
      "ಮಾತಿ": 10131,
      "ಅಮ": 10132,
      "ನಿವೇಶನ": 10133,
      "ಯುಪಿ": 10134,
      "ತಾನೆ": 10135,
      "ಮುಂಡ": 10136,
      "ಮುಂಬಯಿ": 10137,
      "ಅಡ್ಡಿ": 10138,
      "ಾಗಿದ್ದರೆ": 10139,
      "ಗುಂಪಿ": 10140,
      "ನಿಖರ": 10141,
      "In": 10142,
      "ದಿವೆ": 10143,
      "ಮಾಲೀಕ": 10144,
      "ವಿಚಾರವಾಗಿ": 10145,
      "ಬರುವುದಿಲ್ಲ": 10146,
      "ಒಳಗೊಂಡಿ": 10147,
      "ಅಧ್ಯಕ್ಷರಾದ": 10148,
      "ವೇಳ": 10149,
      "ಅನಿಲ": 10150,
      "ಅಬ್ದುಲ್": 10151,
      "ಪ್ರತಿಪಾದ": 10152,
      "ಚುರು": 10153,
      "ಪರಾರ": 10154,
      "ಕಾರಾತ್ಮಕ": 10155,
      "ಉಳ್ಳ": 10156,
      "ಆಸಕ್ತ": 10157,
      "ಕಾರಿನಲ್ಲಿ": 10158,
      "ಪ್ರಾಚೀನ": 10159,
      "ಹಾಜರಿದ್ದರು": 10160,
      "ಸಲ್ಮಾನ್": 10161,
      "ಮದ್ದು": 10162,
      "ಕಾರ್ಯಕ್ರಮಗಳು": 10163,
      "ಸ್ಪೀಕರ್": 10164,
      "ಹಣ್ಣಿನ": 10165,
      "2009": 10166,
      "ಪಡೆದಿದೆ": 10167,
      "ಎಲ್ಲೆಡೆ": 10168,
      "ಝಾ": 10169,
      "ur": 10170,
      "ಲೆಗೆ": 10171,
      "ಝ್": 10172,
      "ನವೀಕರಣ": 10173,
      "ಇದುವರೆಗೂ": 10174,
      "ವ್ಯಂಗ್ಯ": 10175,
      "ಅರಿತು": 10176,
      "ಸುಪ್ರೀಂಕೋರ್ಟ್": 10177,
      "ಕ್ವಾರ": 10178,
      "!!!": 10179,
      "ಫೀಚರ್": 10180,
      "ಉಳಿದು": 10181,
      "ಸ್ಟ್ರಾ": 10182,
      "ಂತಾ": 10183,
      "ಮಾರುಕಟ್ಟೆಗೆ": 10184,
      "ಹಾಡಿ": 10185,
      "GA": 10186,
      "ಹಾವೇರಿ": 10187,
      "ಆರೈ": 10188,
      "ನೋಡೋಣ": 10189,
      "\".": 10190,
      "ಗೋಡು": 10191,
      "ತನ್": 10192,
      "ಉತ್ಪನ್ನಗಳನ್ನು": 10193,
[...]
